{"##hiko": 22204, "possessed": 8679, "cruz": 8096, "resolutions": 18853, "1924": 4814, "tingling": 23690, "von": 3854, "superiors": 22983, "massacre": 9288, "##fulness": 20938, "differentiated": 24374, "1951": 4131, "misconduct": 23337, "properly": 7919, "tile": 14090, "natasha": 17399, "##\\": 29635, "clip": 12528, "##atal": 27815, "cites": 17248, "fresh": 4840, "##croft": 14716, "apache": 15895, "cullen": 19925, "pavement": 14271, "##\u2227": 30129, "characterised": 17253, "plan": 2933, "##verted": 26686, "applies": 12033, "arousal": 18905, "##cology": 19824, "##mg": 24798, "contributing": 8020, "[unused613]": 618, "labour": 4428, "##rds": 17811, "mercy": 8673, "vase": 18781, "scouting": 14299, "##carbon": 26190, "clergyman": 22232, "##\u043e\u0432": 19259, "##\u5065": 30294, "\u110a": 1462, "ireland": 3163, "judiciary": 14814, "notre": 10289, "##\u3048": 30175, "gables": 27008, "aren": 4995, "##tive": 6024, "unincorporated": 7754, "conserved": 19995, "nan": 16660, "mo": 9587, "1933": 4537, "##ber": 5677, "robbery": 13742, "loading": 10578, "excursion": 26144, "binoculars": 29549, "##rge": 20800, "[unused667]": 672, "##nza": 16786, "inched": 25330, "1726": 28342, "##rga": 28921, "me": 2033, "stony": 16104, "krakow": 14576, "##nath": 16207, "centimeters": 18119, "vista": 13005, "maximal": 29160, "overture": 25052, "shin": 12277, "233": 22115, "fisheries": 13424, "quantity": 11712, "federation": 4657, "##ement": 13665, "sunlight": 9325, "consolidate": 24939, "dwellers": 28857, "##tters": 24168, "convicts": 24948, "dungeon": 16633, "removed": 3718, "celebration": 7401, "##rov": 12298, "third": 2353, "grass": 5568, "geschichte": 28299, "glamorgan": 23861, "trinidad": 11856, "cot": 26046, "progressed": 12506, "obligatory": 26471, "293": 26953, "spawn": 25645, "coldly": 24745, "moons": 23377, "##lund": 18028, "efficiently": 18228, "rate": 3446, "leopard": 16240, "authoritative": 23949, "guerrilla": 15722, "capitol": 9424, "nec": 26785, "hanged": 17818, "bmw": 13154, "catastrophic": 23546, "impressions": 19221, "emil": 16243, "dublin": 5772, "trinity": 7124, "##mina": 22311, "##titles": 27430, "##pressed": 19811, "teacher": 3836, "sighted": 19985, "nor": 4496, "mellon": 22181, "belle": 9852, "honesty": 16718, "##rano": 20770, "phylogenetic": 23192, "persisted": 19035, "##ello": 15350, "detroit": 5626, "lining": 14834, "complain": 17612, "mastered": 15682, "scholars": 5784, "crystalline": 24628, "lateral": 11457, "decrees": 28966, "##nie": 8034, "##end": 10497, "[unused35]": 36, "denny": 14465, "recipients": 15991, "crocodile": 21843, "mcgraw": 24179, "marriage": 3510, "breached": 25769, "ithaca": 27939, "##chule": 20269, "##lating": 22248, "sensible": 21082, "##urse": 28393, "solution": 5576, "##lit": 15909, "protections": 28548, "graduating": 6800, "bonding": 19882, "dahl": 27934, "reform": 5290, "abduction": 23415, "forbes": 10822, "fiction": 4349, "conductors": 23396, "[unused261]": 266, "underwear": 14236, "##urst": 29402, "hernandez": 13688, "yang": 8675, "foreword": 23059, "november": 2281, "wheeled": 17320, "forever": 5091, "##clave": 23650, "##iaceae": 23357, "pretoria": 25366, "cessna": 27664, "##ology": 6779, "hacked": 28719, "drills": 28308, "denote": 19090, "[unused524]": 529, "[unused486]": 491, "speeches": 13867, "barking": 19372, "contractors": 16728, "distorted": 19112, "pounder": 20091, "##kas": 13716, "retracted": 28214, "ml": 19875, "see": 2156, "##tel": 9834, "\u09aa": 1367, "rendezvous": 20558, "concepts": 8474, "##leader": 19000, "ptolemy": 23517, "hara": 18820, "sonata": 14681, "boxed": 27554, "relies": 16803, "consultants": 22283, "umbrella": 12977, "quad": 17718, "##uti": 21823, "\u0578": 1232, "extraction": 14676, "ari": 10488, "discovery": 5456, "insistence": 20616, "kun": 28919, "jax": 13118, "stalks": 29594, "##ea": 5243, "##national": 25434, "mandated": 16714, "encouragement": 15846, "bayer": 26367, "##uth": 14317, "invariably": 26597, "\u2012": 1515, "quick": 4248, "##\u057f": 29783, "holden": 9988, "audit": 15727, "suffering": 6114, "disabilities": 13597, "offspring": 13195, "1705": 29326, "sicily": 12071, "saddle": 12279, "coleman": 11608, "surprise": 4474, "handkerchief": 23975, "anthem": 11971, "zhejiang": 26805, "##toy": 29578, "wiener": 25072, "\u0e2d": 1421, "download": 8816, "casualties": 8664, "guild": 9054, "223": 20802, "yours": 6737, "##\u0642": 29834, "clifford": 13894, "politicians": 8801, "suspense": 23873, "1880s": 12751, "kern": 22762, "entered": 3133, "plants": 4264, "promised": 5763, "amplitude": 22261, "##rangle": 21476, "klein": 12555, "epic": 8680, "trading": 6202, "prohibits": 25822, "[unused982]": 987, "diagnostic": 16474, "rosie": 15820, "286": 24921, "messengers": 28938, "[unused413]": 418, "difficulty": 7669, "teamed": 12597, "highlighting": 20655, "presentation": 8312, "##rus": 7946, "##lese": 24527, "lieutenant": 3812, "soaring": 23990, "dmitri": 28316, "stables": 16232, "conditioned": 22442, "##od": 7716, "insignificant": 27018, "additional": 3176, "ladder": 10535, "\u2666": 1626, "caroline": 7981, "clock": 5119, "pot": 8962, "dispute": 7593, "##44": 22932, "sussex": 9503, "\u06c1": 1308, "twelfth": 11313, "mississippi": 5900, "join": 3693, "unreasonable": 29205, "hindus": 18221, "[unused277]": 282, "chet": 25157, "holt": 12621, "endowment": 15108, "libertadores": 27968, "\u30cf": 1718, "hazel": 14015, "17th": 5550, "memoir": 12558, "causes": 5320, "athletes": 7576, "carmichael": 23537, "[unused779]": 784, "bazaar": 22774, "samurai": 16352, "##stra\u00dfe": 24967, "venues": 9356, "\u793a": 1923, "sticky": 15875, "horns": 11569, "glorious": 14013, "dunkirk": 29467, "##lette": 27901, "##tology": 23479, "##\u044c": 23742, "calder": 19347, "nobel": 10501, "shooters": 28310, "consumed": 10202, "headache": 14978, "wa": 11333, "copies": 4809, "search": 3945, "##ated": 4383, "shane": 8683, "oval": 9242, "maddie": 17805, "acoustic": 6490, "wien": 22782, "sera": 26358, "illumination": 21203, "daryl": 22514, "eyebrow": 9522, "largest": 2922, "tracker": 27080, "##ave": 10696, "herb": 12810, "##eous": 14769, "boston": 3731, "journeys": 19147, "also": 2036, "##tly": 14626, "trader": 17667, "disrupt": 23217, "tel": 10093, "##hip": 5605, "consist": 8676, "##nesian": 20281, "liberal": 4314, "gordon": 5146, "##tter": 12079, "kiss": 3610, "status": 3570, "payments": 10504, "backlash": 25748, "aligned": 13115, "unclear": 10599, "[unused250]": 255, "spreads": 20861, "##gard": 13444, "zones": 10019, "obscene": 27744, "serbs": 16757, "either": 2593, "[unused800]": 805, "insists": 16818, "instinct": 12753, "1833": 11040, "acquisition": 7654, "patronage": 15694, "crap": 10231, "plans": 3488, "barbados": 16893, "##naire": 20589, "wars": 5233, "slapped": 11159, "inclination": 21970, "sl": 22889, "ceremonies": 10912, "alyssa": 26442, "##ify": 8757, "shear": 18330, "1785": 17262, "ironically": 18527, "##rrow": 28597, "defenses": 13345, "##woods": 25046, "testified": 14914, "earlier": 3041, "##ba": 3676, "lieu": 22470, "warrior": 6750, "outspoken": 22430, "supposed": 4011, "goal": 3125, "##uri": 9496, "deny": 9772, "##\u1d57": 30041, "disgrace": 29591, "whitman": 21311, "listeners": 13810, "enjoyment": 20195, "timber": 7227, "rank": 4635, "##fl": 10258, "##forth": 15628, "##llo": 7174, "dir": 16101, "arrangements": 7565, "indictment": 24265, "##mpton": 26793, "fortunate": 19590, "slid": 4934, "designations": 26672, "correspond": 17254, "till": 6229, "masculine": 14818, "countries": 3032, "natalie": 10829, "##\u706b": 30432, "reliability": 15258, "dvd": 4966, "##vy": 10736, "vomiting": 24780, "curly": 17546, "edwin": 10049, "valentine": 10113, "huh": 9616, "genealogy": 26684, "trenton": 17148, "motorsports": 20711, "tian": 23401, "sheep": 8351, "trance": 16588, "m1": 23290, "weep": 27874, "refrain": 20703, "neil": 6606, "caracas": 21675, "message": 4471, "##\u00dfe": 17499, "##rard": 25561, "roy": 6060, "hey": 4931, "faction": 10233, "##~": 29643, "##yte": 17250, "gene": 4962, "##tama": 28282, "grazing": 15400, "licensed": 7000, "commentators": 15957, "\u308a": 1686, "tray": 11851, "[unused37]": 38, "##cheng": 21043, "[unused111]": 116, "\u2032": 1531, "careers": 10922, "antennae": 28624, "guadalupe": 23529, "##iza": 21335, "##aru": 15728, "alternate": 6585, "##uve": 22909, "weary": 16040, "[unused340]": 345, "##igny": 26978, "cannabis": 17985, "31": 2861, "example": 2742, "complicated": 8552, "percy": 11312, "##dek": 24463, "poisoned": 17672, "fundraising": 15524, "wonder": 4687, "language": 2653, "seduction": 26962, "approach": 3921, "operational": 6515, "dammit": 20878, "kosovo": 11491, "##dc": 16409, "classed": 27811, "qc": 25196, "somalia": 14717, "##bes": 12681, "connolly": 21018, "guarantee": 11302, "leans": 12671, "##\u6f22": 30430, "alex": 4074, "lest": 26693, "taught": 4036, "##bags": 26813, "##ming": 6562, "picture": 3861, "majestic": 22337, "corresponding": 7978, "phoenix": 6708, "emphasize": 17902, "toledo": 13163, "planning": 4041, "camilla": 26902, "nose": 4451, "adaptation": 6789, "graffiti": 17990, "actresses": 19910, "bethlehem": 19360, "1642": 24061, "##puram": 17809, "manifold": 19726, "wrestling": 4843, "cdp": 8561, "chemist": 15535, "come": 2272, "04": 5840, "creep": 19815, "mayhem": 26865, "yacht": 12187, "##tori": 29469, "##adia": 25205, "vein": 12818, "##hai": 10932, "##\u6625": 30393, "reported": 2988, "potent": 16834, "worthy": 11007, "36": 4029, "declares": 18806, "slope": 9663, "anne": 4776, "##ija": 14713, "##\u5ca1": 30358, "maritime": 7803, "markings": 13967, "forearms": 27323, "national": 2120, "##tary": 18219, "motions": 15323, "kennedy": 5817, "chieftain": 26625, "clube": 24852, "improvement": 7620, "norway": 5120, "dominance": 13811, "sugarcane": 28910, "favour": 7927, "assassination": 10102, "estuary": 18056, "unnecessary": 14203, "sacks": 14918, "coached": 8868, "##lux": 25148, "kyle": 7648, "bi": 12170, "turnover": 20991, "##\u0279": 29691, "them": 2068, "hurt": 3480, "##ness": 2791, "belly": 7579, "laundry": 14533, "##if": 10128, "exceptionally": 17077, "weasel": 29268, "cardiff": 10149, "austin": 5899, "shifts": 12363, "uniform": 6375, "ipswich": 15435, "##bor": 12821, "searches": 17193, "bohemian": 18063, "prematurely": 28179, "antics": 27440, "enriched": 25202, "##nko": 16107, "##en": 2368, "##mics": 22924, "##aire": 14737, "icelandic": 14024, "carthage": 21959, "binds": 20817, "late": 2397, "1603": 25625, "listen": 4952, "##\u3042": 30172, "subcontinent": 26125, "thyroid": 29610, "pods": 26723, "1969": 3440, "##ator": 8844, "politically": 10317, "##inia": 23309, "scholarly": 12683, "gymnasium": 11288, "stein": 14233, "mussolini": 22554, "alcoholism": 25519, "taken": 2579, "fraser": 9443, "gabled": 26182, "maintains": 9319, "region": 2555, "##care": 16302, "277": 25578, "##copic": 26461, "ruse": 26307, "paws": 24392, "professors": 12655, "died": 2351, "41": 4601, "rag": 17768, "churchyard": 19812, "stupid": 5236, "droplets": 27126, "matters": 5609, "posting": 14739, "detected": 11156, "relates": 14623, "##\u03b7": 24824, "byrd": 17845, "mongols": 22235, "##pile": 22090, "##tra": 6494, "lowe": 14086, "bu": 20934, "eligible": 7792, "segments": 9214, "digits": 16648, "##izes": 10057, "##zawa": 19708, "replaces": 20736, "sausage": 24165, "##dun": 27584, "##nivorous": 29193, "necessitated": 29611, "##yard": 14132, "1998": 2687, "edged": 13011, "##t": 2102, "##rgan": 16998, "bertrand": 20586, "silhouette": 21776, "##flies": 24019, "frenzy": 21517, "##ifying": 11787, "stability": 9211, "tops": 13284, "##rant": 17884, "robson": 23698, "##ud": 6784, "hour": 3178, "sings": 10955, "clothing": 5929, "warn": 11582, "declared": 4161, "fidelity": 22625, "##eers": 22862, "vivian": 13801, "twinkle": 29038, "already": 2525, "blast": 8479, "activated": 8878, "ashok": 28916, "educators": 19156, "attract": 9958, "sans": 20344, "hindi": 9269, "outer": 6058, "popular": 2759, "volvo": 21074, "maharaja": 21609, "##quet": 12647, "asks": 5176, "sardinia": 21594, "buds": 26734, "restrained": 19868, "##\u5c07": 30354, "##pheus": 22809, "##\u067e": 29839, "2": 1016, "1907": 5528, "\u3001": 1635, "\u751f": 1910, "1641": 25702, "jul": 21650, "attracted": 6296, "paz": 18183, "waldo": 28806, "moves": 5829, "astronomers": 26357, "##ro": 3217, "faded": 8105, "##osomal": 27642, "tread": 29449, "[unused353]": 358, "exemption": 19621, "stabilization": 28715, "hence": 6516, "believes": 7164, "holstein": 18864, "door": 2341, "1939": 3912, "instruction": 7899, "[unused772]": 777, "related": 3141, "speculative": 23250, "##r": 2099, "stacks": 20829, "diamonds": 11719, "distraction": 14836, "1921": 4885, "[unused901]": 906, "wicket": 12937, "ballard": 21896, "royalist": 20796, "regulatory": 10738, "heirs": 15891, "deals": 9144, "blur": 14819, "divorce": 8179, "resorts": 16511, "sonia": 16244, "##orra": 24285, "##ibe": 20755, "conception": 13120, "##aa": 11057, "vhf": 27527, "pasadena": 18880, "essays": 8927, "supervisor": 12366, "##\u6c5f": 30423, "projected": 11310, "athena": 21880, "majesty": 9995, "bedside": 19475, "dharma": 20669, "110": 7287, "##lton": 13947, "marcos": 14810, "##udeau": 27627, "promises": 10659, "1810": 11786, "1629": 27882, "willis": 12688, "##aks": 29243, "or": 2030, "decay": 13121, "480": 17295, "##\u02b8": 29710, "\u30a2": 1693, "pharmaceuticals": 24797, "appropriated": 29223, "emmanuel": 14459, "##kyu": 23076, "graeme": 21840, "serviced": 22858, "##gf": 25708, "##bson": 27355, "179": 20311, "##tang": 26067, "\u30df": 1724, "\u09a7": 1365, "rudolph": 18466, "vs": 5443, "calderon": 28129, "hovering": 16349, "wingspan": 9635, "naia": 29511, ":": 1024, "##etto": 20082, "ponds": 16879, "billions": 25501, "bangkok": 12627, "##rly": 21194, "ching": 19992, "scoring": 4577, "arabic": 5640, "##es": 2229, "##edes": 18352, "##vili": 21661, "##nsed": 27730, "coordinate": 13530, "lasers": 23965, "##ados": 28118, "modernism": 27254, "declining": 13993, "poole": 19107, "spaghetti": 26666, "mushroom": 18565, "nana": 17810, "calm": 5475, "devout": 26092, "aleppo": 22973, "diplomats": 23473, "virtue": 11870, "warm": 4010, "ronald": 8923, "##mony": 22847, "defender": 8291, "apparatus": 14709, "allah": 16455, "255": 20637, "methane": 24481, "corresponded": 27601, "tolerate": 19242, "##metric": 12589, "loose": 6065, "average": 2779, "lange": 21395, "##imum": 28591, "cramer": 29433, "numb": 15903, "headlines": 19377, "##endez": 28787, "cancer": 4456, "dysfunction": 28466, "supplying": 17731, "\u90e8": 1960, "avery": 12140, "cone": 13171, "principles": 6481, "fiddle": 15888, "worse": 4788, "##ost": 14122, "among": 2426, "catch": 4608, "stripped": 10040, "con": 9530, "##jos": 19929, "accumulate": 27598, "girlfriend": 6513, "nyc": 16392, "maddox": 22730, "sloane": 17558, "logan": 6307, "electromagnetic": 17225, "hurriedly": 23878, "amman": 25703, "undoubtedly": 17319, "lingering": 15304, "dil": 29454, "aidan": 12643, "immigrant": 11560, "olga": 15585, "landmarks": 16209, "conducts": 17976, "mates": 14711, "weeping": 19750, "##ion": 3258, "prediction": 17547, "sundance": 20140, "suffolk": 12291, "attempting": 7161, "astor": 25159, "bonnet": 24367, "controllers": 21257, "steve": 3889, "preference": 12157, "loud": 5189, "genetics": 14471, "##ped": 5669, "##1": 2487, "psychedelic": 18147, "philharmonic": 12355, "reverted": 16407, "##\u884c": 30471, "teddy": 11389, "hawks": 12505, "king": 2332, "chairs": 8397, "lexie": 24123, "##bah": 24206, "naval": 3987, "ethics": 9615, "ingrid": 22093, "coroner": 22896, "secrets": 7800, "moffat": 28528, "##pt": 13876, "mainland": 8240, "protectorate": 20394, "##tres": 19168, "infinity": 15579, "gary": 5639, "tale": 6925, "wight": 20945, "interspersed": 25338, "##\u222a": 30132, "deserves": 17210, "comical": 29257, "deported": 17929, "skeptical": 18386, "##\u00d7": 26306, "suffered": 4265, "lama": 18832, "brazilian": 6142, "plotting": 20699, "reasoning": 13384, "image": 3746, "atkins": 21087, "domestically": 27143, "damp": 10620, "cheaper": 16269, "neutral": 8699, "aground": 29406, "fades": 26784, "1663": 29016, "##turn": 22299, "kimberley": 25004, "ting": 28642, "easing": 24070, "##group": 17058, "reassure": 24647, "downstairs": 10025, "groves": 21695, "scratched": 15047, "amidst": 17171, "ligue": 18374, "\u00a2": 1068, "naomi": 12806, "clapton": 24705, "##\u2660": 30150, "files": 6764, "silesian": 20453, "fence": 8638, "sparkle": 26831, "54": 5139, "fertile": 14946, "estimates": 10035, "rom": 17083, "gunner": 14850, "anaheim": 20835, "##back": 5963, "husbands": 19089, "##\u51fa": 30300, "##iciencies": 28227, "conde": 24707, "curves": 10543, "between": 2090, "##bard": 21458, "plaintiff": 20579, "\u026a": 1119, "alderman": 18977, "perpetual": 18870, "validity": 16406, "sexy": 7916, "bullying": 18917, "ninja": 14104, "bombardier": 29143, "##us": 2271, "##oids": 17086, "ousted": 28368, "earnest": 17300, "bum": 26352, "##\u5d0e": 30360, "mitochondrial": 23079, "hallways": 28274, "##dor": 7983, "viking": 12886, "retrieve": 12850, "equilibrium": 14442, "relay": 8846, "give": 2507, "##jiang": 21786, "[unused96]": 97, "bernardo": 21175, "futures": 17795, "addition": 2804, "cas": 25222, "milk": 6501, "##uated": 16453, "alteration": 26014, "\u0564": 1222, "clade": 21697, "##bour": 25127, "aristocracy": 22706, "ballads": 18456, "chen": 8802, "##pore": 26691, "pleasing": 24820, "[unused924]": 929, "rotor": 18929, "punjab": 9213, "##zh": 27922, "koreans": 24651, "nobody": 6343, "angelina": 23847, "1896": 6306, "tattooed": 26464, "bartender": 15812, "editing": 9260, "[unused81]": 82, "dangerous": 4795, "[unused622]": 627, "tres": 24403, "primary": 3078, "##heads": 13038, "sinks": 23462, "northernmost": 22037, "architectural": 6549, "lucha": 25390, "\u1d63": 1508, "denver": 7573, "pace": 6393, "acquaintances": 29409, "dell": 12418, "lewis": 4572, "pose": 13382, "##talk": 28014, "sustainable": 9084, "liang": 16982, "##ym": 24335, "closure": 8503, "law": 2375, "scaling": 25169, "superb": 21688, "cpu": 17368, "mage": 17454, "share": 3745, "encounters": 11340, "##ort": 11589, "declines": 26451, "supplied": 8127, "navarro": 23524, "balance": 5703, "##\u00ba": 29662, "monkeys": 17059, "winners": 4791, "tbilisi": 22406, "hectare": 20406, "[unused709]": 714, "isolated": 7275, "tensions": 13136, "yell": 14315, "literally": 6719, "communist": 4750, "designed": 2881, "hip": 5099, "abolition": 15766, "hawker": 23937, "habitat": 6552, "sorted": 19616, "situation": 3663, "lux": 28359, "##\u30bb": 30234, "40th": 16541, "refit": 27070, "brother": 2567, "bellowed": 27386, "capture": 5425, "cheating": 16789, "counting": 10320, "refinery": 21034, "shrubs": 18812, "##sation": 26652, "yuki": 24924, "lecture": 8835, "cambodia": 12899, "graf": 22160, "##stadt": 21543, "[unused402]": 407, "civilizations": 24784, "directing": 9855, "89": 6486, "weed": 17901, "23": 2603, "##bby": 14075, "ding": 22033, "adi": 27133, "believed": 3373, "4000": 20143, "288": 24841, "destroyers": 13242, "aspects": 5919, "involves": 7336, "\u5730": 1802, "grenada": 29153, "artifact": 20785, "mechanics": 9760, "charming": 11951, "kaplan": 22990, "1400": 20652, "[unused556]": 561, "internacional": 27607, "266": 25162, "assure": 14306, "##cek": 25368, "td": 14595, "musical": 3315, "paranormal": 20725, "strategy": 5656, "[unused632]": 637, "demanded": 6303, "appear": 3711, "1658": 28944, "essentially": 7687, "larsen": 20094, "nik": 23205, "danny": 6266, "##gui": 25698, "ruling": 6996, "compete": 5566, "##dou": 26797, "crore": 21665, "##walk": 17122, "dubois": 26258, "sniffed": 18013, "cut": 3013, "wellesley": 25658, "injuring": 22736, "spanish": 3009, "pak": 22190, "covered": 3139, "##lous": 15534, "conor": 20545, "telling": 4129, "newark": 12948, "gilded": 23880, "##\u0986": 29884, "di": 4487, "fountain": 9545, "ankle": 10792, "[unused304]": 309, "subdivisions": 22095, "[unused657]": 662, "qatar": 12577, "asturias": 26798, "nodding": 11863, "suicidal": 26094, "knees": 5042, "##gi": 5856, "incorporates": 12374, "##nay": 16741, "##isa": 14268, "421": 29403, "stole": 10312, "gael": 28151, "boring": 11771, "borrow": 17781, "66": 5764, "##zer": 6290, "gigs": 20929, "##rick": 11285, "##das": 8883, "promotional": 10319, "cyril": 16049, "ara": 19027, "performance": 2836, "tourism": 6813, "wreath": 29586, "grown": 4961, "##emi": 23238, "riley": 7546, "initial": 3988, "##systems": 29390, "bodily": 20445, "medications": 20992, "slavery": 8864, "kept": 2921, "cooperation": 6792, "polar": 11508, "##\u5cf6": 30359, "bengal": 8191, "steady": 6706, "pbs": 13683, "inferno": 21848, "##rah": 10404, "##ttering": 19567, "working": 2551, "emblem": 16199, "##oni": 10698, "##\u0435\u0432\u0438\u0447": 22646, "settles": 27221, "##athy": 17308, "##bra": 10024, "##\u0456": 29760, "nouns": 19211, "bid": 7226, "##mmer": 15810, "[unused239]": 244, "stilled": 22791, "1843": 10075, "##cultural": 29415, "##ulin": 18639, "mute": 20101, "1800s": 19878, "zoom": 24095, "km": 2463, "selma": 28112, "recipe": 17974, "\u30a7": 1697, "\u03c4": 1174, "##fin": 16294, "##thy": 16921, "inclusion": 10502, "textile": 12437, "indifference": 25920, "unicef": 29073, "sean": 5977, "fused": 19660, "assessments": 20794, "didn": 2134, "authentic": 14469, "\u1172": 1480, "beloved": 11419, "skinner": 17451, "batsman": 13953, "micro": 12702, "rub": 14548, "iteration": 27758, "cancers": 25409, "tripoli": 21841, "\uff0d": 1990, "##eed": 13089, "jain": 17136, "newell": 28052, "outside": 2648, "\u0279": 1125, "ticking": 28561, "verandah": 26153, "##ivar": 28739, "fit": 4906, "##oric": 29180, "pam": 14089, "baldwin": 10970, "charred": 29030, "climbs": 18881, "tho": 27793, "collectively": 13643, "interrupted": 7153, "specializes": 16997, "bihar": 16178, "skiing": 12701, "war": 2162, "primal": 22289, "kendra": 13812, "willow": 11940, "losers": 23160, "cliffs": 13333, "clicks": 29225, "suarez": 22551, "97": 5989, "soaking": 22721, "examining": 12843, "shrugs": 23822, "unfortunately": 6854, "refined": 15514, "##borough": 10235, "navigation": 9163, "longest": 6493, "hiv": 9820, "coyote": 20457, "owens": 14824, "charcoal": 18872, "amsterdam": 7598, "distracting": 25012, "unavailable": 20165, "tunnel": 5234, "fueled": 17999, "##ne": 2638, "anticipation": 11162, "heaviest": 26858, "fees": 9883, "apply": 6611, "##pl": 24759, "\u06cc": 1309, "goodman": 14514, "diplomat": 11125, "312": 21036, "decca": 21079, "##erence": 20935, "##raine": 26456, "float": 14257, "powered": 6113, "sabotage": 20223, "##bino": 21891, "worlds": 8484, "ling": 17002, "seemingly": 9428, "isle": 8842, "##kura": 28260, "aldo": 28163, "affect": 7461, "altitude": 7998, "halls": 9873, "wrestled": 20615, "additive": 29167, "randall": 12813, "windmill": 25367, "folds": 15439, "jones": 3557, "thistle": 24328, "statutes": 18574, "[unused906]": 911, "starved": 26042, "zip": 14101, "computational": 15078, "##gn": 16206, "loads": 15665, "eugen": 29273, "licking": 17033, "theories": 8106, "bo": 8945, "identifies": 14847, "##akh": 27573, "antrim": 24142, "jacobs": 12988, "happier": 19366, "##dy": 5149, "wales": 3575, "features": 2838, "pairs": 7689, "##eaux": 25639, "mab": 26661, "demoted": 25692, "households": 3911, "intensive": 11806, "spd": 23772, "bikes": 18105, "anxious": 11480, "somebody": 8307, "prasad": 17476, "sterile": 25403, "neatly": 15981, "money": 2769, "rbi": 16929, "##script": 22483, "oro": 20298, "dummy": 24369, "##\u11af": 30022, "attested": 18470, "canning": 24549, "campground": 29144, "mn": 24098, "plug": 13354, "philosophy": 4695, "##bey": 19182, "usb": 18833, "##masters": 27751, "elevators": 19406, "dear": 6203, "indiana": 5242, "##ix": 7646, "##mas": 9335, "\u05e4": 1261, "hybrid": 8893, "1675": 27194, "argues": 9251, "runes": 29161, "canary": 17154, "daughter": 2684, "##ida": 8524, "disturbances": 24535, "rte": 20375, "greenfield": 26713, "flip": 11238, "bicycle": 10165, "flawed": 25077, "heart": 2540, "submissions": 27842, "miles": 2661, "\u5143": 1769, "1989": 2960, "1801": 12410, "retire": 11036, "bed": 2793, "sanskrit": 11353, "lengthy": 12401, "military": 2510, "hydra": 26018, "##\u0baa": 29924, "sweetly": 22557, "patriarch": 12626, "\u0561": 1219, "[unused945]": 950, "kincaid": 24510, "colours": 8604, "drawers": 22497, "\u0cbe": 1402, "dynamics": 10949, "##oris": 21239, "wetland": 22217, "1738": 28009, "##\u05dc": 29799, "mansfield": 15352, "soft": 3730, "exactly": 3599, "handcuffs": 28338, "number": 2193, "legs": 3456, "conversions": 25834, "##cies": 9243, "##lu": 7630, "metres": 3620, "##/": 29626, "##df": 20952, "neglected": 15486, "credible": 23411, "wii": 16568, "##iz": 10993, "marx": 13518, "murmurs": 22888, "##\u516c": 30298, "##ers": 2545, "declare": 13520, "otago": 21831, "stable": 6540, "##tar": 7559, "phantom": 11588, "\u00f0": 1098, "carla": 17081, "andrew": 4080, "isabel": 11648, "carlisle": 13575, "##azi": 16103, "hazards": 22010, "cadet": 12738, "##inen": 21820, "##beau": 26401, "34th": 20460, "statewide": 13486, "fifteen": 5417, "##ore": 5686, "barely": 4510, "rat": 9350, "redeveloped": 28053, "##crats": 23423, "tear": 7697, "##frey": 22586, "ira": 11209, "altogether": 10462, "##\u58eb": 30333, "##lster": 29576, "storylines": 22628, "woken": 22795, "move": 2693, "ignore": 8568, "1739": 25801, "col": 8902, "malcolm": 8861, "cheeks": 6029, "[unused914]": 919, "strangled": 21384, "dwyer": 29394, "##ax": 8528, "endings": 21306, "##asco": 28187, "smallest": 10479, "bank": 2924, "[unused19]": 20, "schooling": 14118, "condom": 20910, "cotton": 6557, "incentives": 21134, "\u11af": 1486, "symphony": 6189, "bodo": 28137, "nt": 23961, "dna": 6064, "doing": 2725, "##less": 3238, "textbooks": 18841, "##icz": 18682, "bk": 23923, "[unused669]": 674, "neue": 27713, "\u27e9": 1630, "comedy": 4038, "looted": 27775, "[unused25]": 26, "##\u3093": 30217, "schoolhouse": 26301, "00pm": 27995, "##we": 8545, "##nington": 23155, "tackled": 26176, "spacious": 22445, "cosmic": 14448, "television": 2547, "jolt": 22538, "macedonian": 13037, "##ote": 12184, "##laid": 24393, "narcotics": 27290, "\u0635": 1284, "wanted": 2359, "venezuela": 8326, "dentistry": 26556, "##fect": 25969, "[unused848]": 853, "luzon": 21622, "probable": 15596, "ukraine": 5924, "##jected": 24455, "fabrication": 25884, "##\u2076": 30075, "wooded": 17172, "dana": 11271, "142": 16087, "dense": 9742, "founding": 4889, "exeter": 12869, "padres": 21577, "however": 2174, "enacted": 11955, "\u0926": 1325, "##rh": 25032, "winery": 23910, "\u30e1": 1726, "soloists": 27516, "generalized": 18960, "##100": 18613, "young": 2402, "undertaken": 10607, "property": 3200, "holloway": 20977, "##umen": 27417, "disastrous": 16775, "shattering": 21797, "alexis": 13573, "blinds": 28279, "aft": 16638, "wilson": 4267, "umm": 26114, "abbey": 6103, "joke": 8257, "adjoining": 13562, "sibling": 22941, "\u592b": 1813, "disappointment": 10520, "dunbar": 23034, "##\u044e": 29757, "footballer": 4362, "sell": 5271, "unspoken": 25982, "bromley": 27979, "devoted": 7422, "##nction": 27989, "seizures": 25750, "fluttered": 18360, "russian": 2845, "spiral": 12313, "##eller": 24038, "236": 23593, "tae": 22297, "jase": 18626, "##sing": 7741, "buick": 28865, "silly": 10021, "bitterness": 22364, "verified": 20119, "tko": 26537, "ryan": 4575, "martini": 24480, "[unused520]": 525, "brakes": 13627, "gale": 14554, "elgin": 23792, "searched": 9022, "sedan": 15134, "gaining": 8550, "drum": 6943, "mariners": 18049, "##fight": 20450, "\u6c0f": 1891, "nods": 11232, "##\u6cb3": 30425, "cactus": 23265, "##eau": 10207, "takeoff": 19744, "courageous": 26103, "pea": 26034, "##lizer": 28863, "extract": 14817, "informs": 15670, "disappearance": 13406, "\u2207": 1595, "openly": 10132, "[unused554]": 559, "laos": 15786, "geometric": 14965, "stack": 9991, "tung": 27079, "oldies": 26826, "spaced": 19835, "\u660e": 1865, "enthusiasm": 12024, "find": 2424, "##lard": 20822, "shipbuilding": 16802, "symbolic": 12613, "selective": 13228, "\u5bbf": 1826, "279": 25745, "visual": 5107, "essex": 8862, "houston": 5395, "##bine": 16765, "\u6709": 1873, "clean": 4550, "lifestyle": 9580, "bernie": 15941, "1612": 29186, "statesman": 17689, "demolition": 12451, "waste": 5949, "deceased": 10181, "monte": 10125, "romanian": 7056, "billing": 25640, "norfolk": 7735, "safe": 3647, "117": 12567, "grandma": 13055, "##her": 5886, "intellectual": 7789, "rudolf": 12794, "dissolve": 21969, "##inho": 29344, "##riam": 25557, "##tem": 18532, "##rigues": 22934, "endurance": 14280, "shivers": 28464, "practised": 20439, "penis": 19085, "fr": 10424, "stronghold": 16995, "residual": 21961, "##acion": 21736, "sincere": 18006, "storms": 12642, "freedom": 4071, "painters": 12499, "##ulates": 18969, "evidence": 3350, "undrafted": 21347, "ware": 16283, "herself": 2841, "retained": 6025, "###": 29614, "minimize": 18478, "prefer": 9544, "deep": 2784, "rosy": 26851, "##tom": 20389, "dino": 22412, "##sit": 28032, "policemen": 19809, "stab": 17079, "sandwich": 11642, "##hwa": 18663, "bundles": 26825, "eighty": 12021, "##oys": 27153, "silvia": 27827, "##\u2202": 30120, "blinking": 15997, "##ier": 3771, "\u300d": 1642, "accessibility": 23661, "##culture": 14561, "[unused185]": 190, "cadets": 15724, "motivation": 14354, "glaciers": 21193, "paige": 17031, "1634": 28502, "##ience": 13684, "\u03ba": 1164, "creepy": 17109, "\u043c": 1191, "fran": 23151, "bounce": 17523, "[unused749]": 754, "muttered": 6250, "##nat": 19833, "clever": 12266, "shaved": 20665, "simulations": 24710, "##ff": 4246, "##\u00ae": 29656, "wagons": 14525, "isla": 25340, "fred": 5965, "enlarged": 11792, "thornton": 14630, "scalp": 21065, "regiments": 10435, "scoffed": 26326, "yelled": 7581, "aboriginal": 9757, "goldman": 17765, "##ke": 3489, "woman": 2450, "\u5c71": 1831, "nightmares": 15446, "shen": 21882, "\u5317": 1781, "statutory": 15201, "bond": 5416, "solidarity": 14657, "mozambique": 16274, "258": 24398, "letter": 3661, "13": 2410, "##\u0268": 29684, "kerr": 14884, "early": 2220, "##jan": 8405, "edict": 24754, "resented": 27188, "thanked": 15583, "filmmaking": 24466, "virginity": 26970, "##shaft": 25679, "##ross": 25725, "\u524d": 1776, "##puri": 24661, "sec": 10819, "arden": 26225, "800": 5385, "##\u4ec1": 30284, "aquatics": 26649, "moving": 3048, "##its": 12762, "flaw": 28450, "salute": 17664, "##llie": 23697, "color": 3609, "zombies": 14106, "[unused771]": 776, "antilles": 27695, "everybody": 7955, "##mora": 22122, "##yman": 17906, "##oor": 16506, "##erty": 15010, "burgess": 17754, "injection": 13341, "watson": 7908, "barnes": 9957, "pasha": 14292, "##enne": 24336, "violated": 14424, "maxim": 20446, "nix": 23330, "amazingly": 29350, "##ssen": 14416, "[unused331]": 336, "\u209b": 1570, "##wley": 20609, "##ug": 15916, "grades": 7022, "funded": 6787, "##han": 4819, "##nal": 12032, "pencil": 14745, "marches": 20691, "##ps": 4523, "briefcase": 21793, "persians": 27229, "##vik": 13309, "salzburg": 18369, "expands": 24545, "##run": 15532, "[unused83]": 84, "2020": 12609, "else": 2842, "##ning": 5582, "motorway": 13119, "\u1d58": 1506, "rabbit": 10442, "##eon": 10242, "sleeve": 10353, "1755": 21417, "spreading": 9359, "extinction": 14446, "tiberius": 28411, "##cial": 13247, "##oso": 19137, "\u2091": 1561, "[unused869]": 874, "advertisements": 14389, "bumper": 21519, "##\u3055": 30182, "##und": 8630, "poisoning": 16149, "##nai": 26416, "padma": 23731, "fellow": 3507, "trek": 10313, "descends": 23328, "hollis": 27477, "uncomfortable": 8796, "automatically": 8073, "bloomington": 26372, "visa": 9425, "dramatic": 6918, "mild": 10256, "chinese": 2822, "shelf": 11142, "missouri": 5284, "##\u72ac": 30434, "parted": 10277, "meant": 3214, "scooted": 24289, "socialists": 21633, "##lan": 5802, "wolverhampton": 20085, "seniors": 15995, "##vant": 18941, "inquisition": 24638, "brody": 19631, "shut": 3844, "mixer": 23228, "politely": 16954, "grimly": 22561, "coming": 2746, "genuine": 10218, "ardent": 25314, "##leigh": 13615, "gasping": 17054, "colonel": 4327, "student": 3076, "bosnian": 16163, "correspondent": 11370, "vuelta": 21441, "[unused203]": 208, "follows": 4076, "kicks": 14590, "coloration": 28757, "insult": 15301, "preceding": 11003, "skeletons": 24365, "eduard": 20424, "recess": 28290, "dunedin": 22020, "[unused224]": 229, "red": 2417, "lodges": 26767, "vt": 28879, "done": 2589, "\u207a": 1544, "terrace": 11134, "[unused637]": 642, "playground": 14705, "viz": 26619, "thirties": 26313, "lingered": 17645, "chickens": 21868, "hawthorn": 21671, "180": 8380, "##dden": 17101, "burnley": 23028, "hearth": 22885, "reins": 19222, "vertically": 20018, "serbian": 6514, "systems": 3001, "darby": 25844, "numerous": 3365, "aunt": 5916, "[unused453]": 458, "signage": 29404, "rituals": 13549, "readiness": 19822, "resurrection": 15218, "##ouin": 25058, "gambia": 26728, "ceramics": 17314, "curiously": 16484, "healy": 25706, "active": 3161, "ya": 8038, "stunned": 9860, "##iary": 17302, "detection": 10788, "josef": 12947, "[unused207]": 212, "##ui": 10179, "inca": 27523, "woodrow": 23954, "shrugged": 6345, "tubes": 10868, "super": 3565, "pounding": 9836, "[unused829]": 834, "vegetarian": 23566, "gibbs": 15659, "frontiers": 28750, "emphasizing": 22671, "buy": 4965, "haifa": 21303, "##nail": 25464, "##ldon": 19932, "##yer": 10532, "[unused296]": 301, "##\u1d49": 30035, "zoological": 26168, "audible": 19525, "specify": 20648, "ethel": 19180, "gate": 4796, "paving": 28007, "##\u767d": 30441, "##hett": 28499, "using": 2478, "1628": 28627, "delhi": 6768, "[unused635]": 640, "smiled": 3281, "engined": 21235, "training": 2731, "blanchard": 26870, "surrey": 9948, "ipa": 24531, "meanings": 15383, "##\u0ba4": 29921, "pronunciation": 15498, "dissipated": 22572, "gonzalez": 10121, "suzuki": 14278, "##\u1172": 30016, "noel": 10716, "[unused134]": 139, "switch": 6942, "##analysis": 25902, "aiden": 15086, "luna": 12909, "pinned": 11807, "29th": 16318, "way": 2126, "##building": 25820, "illness": 7355, "\u10da": 1447, "sept": 17419, "arab": 5424, "black": 2304, "\u590f": 1808, "##kow": 24144, "andres": 15614, "1624": 28531, "shaun": 16845, "primitive": 10968, "thereof": 21739, "[unused653]": 658, "##\u9593": 30495, "[unused417]": 422, "saber": 25653, "shanghai": 8344, "pocket": 4979, "museo": 19713, "libby": 19533, "1747": 24522, "conquered": 11438, "##connected": 24230, "sho": 26822, "concurrent": 16483, "nickel": 15519, "##sity": 17759, "proves": 16481, "engaging": 11973, "[unused112]": 117, "##islaus": 25678, "ave": 13642, "smooth": 5744, "thunder": 8505, "##isch": 19946, "hoped": 5113, "##hua": 14691, "##age": 4270, "nightstand": 23135, "##efined": 28344, "stating": 5517, "knocked": 6573, "graves": 9729, "##ano": 6761, "##\u6c11": 30418, "##\u201d": 30059, "visuals": 26749, "yoo": 26823, "potsdam": 26554, "julian": 6426, "buffy": 18467, "motel": 14901, "episodes": 4178, "##rac": 22648, "planned": 3740, "##\u09a6": 29900, "##ks": 5705, "sparse": 20288, "med": 19960, "##\u9f8d": 30508, "unions": 9209, "doubled": 11515, "exchanging": 25620, "relieved": 7653, "coaches": 7850, "historian": 5272, "kidnapped": 11364, "##56": 26976, "cho": 16480, "trilogy": 11544, "1732": 27582, "exercises": 11110, "floated": 13715, "##uto": 16161, "overseas": 6931, "##log": 21197, "wu": 8814, "publicized": 24928, "alejandro": 16810, "here": 2182, "[unused644]": 649, "tens": 15295, "torque": 15894, "3d": 7605, "junk": 18015, "parades": 26635, "efficient": 8114, "[unused47]": 48, "genie": 22519, "steadily": 11328, "[unused764]": 769, "barr": 19820, "cries": 12842, "##wire": 20357, "pioneers": 13200, "laced": 17958, "odor": 19255, "##station": 20100, "pu": 16405, "typing": 22868, "methods": 4725, "messages": 7696, "prompt": 25732, "##logical": 9966, "statement": 4861, "elephant": 10777, "sly": 18230, "##wen": 12449, "56th": 29087, "illuminated": 14640, "##lce": 23314, "snaps": 20057, "considerably": 9839, "preach": 25250, "[unused821]": 826, "surpassed": 15602, "chronicles": 11906, "##\u0584": 29786, "seduce": 23199, "clive": 14675, "canoe": 14347, "bulk": 9625, "biggest": 5221, "printer": 15041, "merlin": 15993, "##sons": 23345, "doomed": 20076, "embryo": 28086, "nearby": 3518, "and": 1998, "subscription": 15002, "callum": 15229, "##tree": 13334, "wolverine": 22162, "\u0e32": 1422, "heavens": 17223, "##rsa": 22381, "operatives": 25631, "##ist": 2923, "registers": 18687, "directors": 5501, "mouths": 15076, "roots": 6147, "hop": 6154, "reason": 3114, "outpost": 21080, "efficiency": 8122, "couch": 6411, "guardian": 6697, "vogue": 17734, "blowing": 11221, "sewage": 19873, "golf": 5439, "latvia": 12429, "china": 2859, "redesign": 25136, "##rek": 16816, "torah": 16297, "##ez": 9351, "routing": 16972, "##rita": 17728, "swollen": 13408, "##\u6a4b": 30411, "##enburg": 12059, "1765": 20797, "plaza": 8232, "##word": 18351, "[unused161]": 166, "remake": 12661, "gunther": 19384, "addicted": 23042, "lobbying": 19670, "##rre": 14343, "##llan": 19036, "slopes": 10314, "no": 2053, "##rified": 22618, "wing": 3358, "\u2083": 1550, "eye": 3239, "earning": 7414, "displaying": 14962, "removing": 9268, "monarch": 11590, "##\u0647": 14157, "inherit": 22490, "goodwill": 22875, "articles": 4790, "blinded": 20641, "postal": 10690, "##k": 2243, "considerable": 6196, "coalition": 6056, "checked": 7039, "edit": 10086, "tia": 27339, "policeman": 14460, "flare": 17748, "##adt": 18727, "fading": 14059, "##omics": 25524, "junctions": 27169, "stil": 25931, "[unused385]": 390, "tails": 17448, "cochin": 28982, "##\uff1a": 30519, "1945": 3386, "##dom": 9527, "hitting": 7294, "##atics": 17592, "rec": 28667, "##vinsky": 27704, "forty": 5659, "##su": 6342, "geese": 28519, "pay": 3477, "rely": 11160, "rafe": 15819, "\u307f": 1678, "connacht": 27062, "occupants": 18837, "boosted": 28043, "stationed": 8895, "gunshot": 22077, "douglass": 27485, "flores": 17343, "[unused698]": 703, "1879": 7449, "\u6b62": 1887, "alien": 7344, "inches": 5282, "quaker": 18844, "homeless": 11573, "##ois": 10054, "obama": 8112, "##eral": 21673, "121": 12606, "package": 7427, "tobacco": 9098, "ineffective": 20694, "inactivated": 15663, "archdeacon": 21742, "wonders": 16278, "baptism": 18336, "primetime": 18474, "frontier": 8880, "cuff": 26450, "##ily": 6588, "abroad": 6917, "monument": 6104, "nl": 17953, "chief": 2708, "prescott": 20719, "double": 3313, "##cia": 7405, "oskar": 28626, "file": 5371, "brien": 9848, "tasting": 18767, "parade": 7700, "surged": 18852, "parentheses": 27393, "comprehension": 26683, "corridor": 7120, "##ended": 21945, "overlooked": 17092, "rests": 16626, "sufficient": 7182, "##iya": 8717, "##ooped": 20671, "\u00a8": 1074, "fixed": 4964, "concession": 16427, "full": 2440, "allows": 4473, "furniture": 7390, "##yuan": 17236, "##cave": 27454, "hawaiian": 12188, "##gue": 9077, "zoology": 22405, "aliens": 12114, "##oke": 11045, "agent": 4005, "##ight": 18743, "lao": 18805, "##kovsky": 23829, "testosterone": 25937, "charging": 13003, "##nity": 22758, "instruments": 5693, "rwanda": 17591, "barked": 17554, "ukrainian": 5969, "participating": 8019, "childish": 24282, "foreigner": 29524, "mccain": 19186, "hooves": 28399, "accompaniment": 22205, "vidhan": 28590, "[unused76]": 77, "[unused469]": 474, "smile": 2868, "##hta": 22893, "burkina": 23089, "##pe": 5051, "eliminated": 5892, "##uter": 19901, "unionist": 17104, "flashing": 12659, "trapping": 22977, "##\u0965": 29881, "occurrences": 27247, "ist": 21541, "gemma": 19073, "rounds": 6241, "confused": 5457, "messiah": 22112, "nedra": 28240, "foyer": 16683, "notable": 3862, "##oga": 18170, "widows": 24835, "commentary": 8570, "inland": 9514, "crusader": 25237, "austrians": 28439, "##ple": 10814, "chase": 5252, "##\u590f": 30334, "##asa": 16782, "arbor": 19679, "chips": 11772, "ioc": 25941, "hugo": 9395, "\u306b": 1668, "wake": 5256, "reconnaissance": 8967, "[unused291]": 296, "sable": 23492, "sulfur": 17864, "##agawa": 20812, "tunes": 13281, "institutes": 12769, "\u00df": 1096, "angle": 6466, "\u826f": 1938, "iec": 24940, "##pala": 19636, "##\u208d": 30087, "33": 3943, "patiently": 19080, "flanks": 23547, "deviation": 24353, "magnolia": 24659, "wavy": 23098, "dow": 23268, "pune": 16920, "##nah": 15272, "[unused149]": 154, "##tore": 19277, "trainers": 21992, "hint": 9374, "blake": 6511, "safely": 9689, "##elis": 29282, "samuel": 5212, "loving": 8295, "molecule": 13922, "parasite": 21198, "exam": 11360, "##nka": 25804, "angola": 13491, "##umble": 26607, "##ble": 3468, "observing": 14158, "roared": 14242, "bodies": 4230, "##hesis": 24124, "iona": 22347, "2006": 2294, "force": 2486, "inlet": 15824, "basal": 15191, "piedmont": 18873, "patsy": 25382, "[unused972]": 977, "##lita": 27606, "another": 2178, "compounds": 10099, "feathers": 12261, "##gc": 18195, "elm": 17709, "cord": 11601, "##\u09ac": 29904, "21st": 7398, "sources": 4216, "latham": 28737, "[unused834]": 839, "vendor": 21431, "willoughby": 24919, "##\u30a6": 30222, "medicinal": 20632, "specimens": 9908, "ebook": 26885, "prisoners": 5895, "##tion": 3508, "##rmed": 29540, "enrichment": 27226, "lutheran": 10034, "\u3053": 1655, "##lithic": 28508, "##llah": 18599, "subject": 3395, "sour": 14768, "favorites": 20672, "##erative": 25284, "##nto": 13663, "1770": 17711, "games": 2399, "butcher": 14998, "speakers": 7492, "strive": 29453, "date": 3058, "streaks": 21295, "##win": 10105, "liturgical": 19246, "##zal": 16739, "racecourse": 15948, "respecting": 27818, "shorter": 7820, "transcript": 24051, "bronze": 4421, "trafford": 26894, "transitioned": 23946, "##\u05e0": 29803, "questions": 3980, "terrorism": 10130, "wnba": 25554, "\u0ba4": 1385, "marching": 10998, "##avs": 29553, "dishes": 10447, "cooling": 11520, "\u677e": 1880, "flopped": 24723, "gripping": 13940, "wes": 14008, "forcefully": 23097, "christy": 21550, "##\u0259": 29681, "##version": 27774, "bliss": 13670, "lasting": 9879, "speech": 4613, "variations": 8358, "portions": 8810, "##usion": 14499, "segregated": 24382, "nanny": 19174, "difficulties": 8190, "congo": 9030, "subsequently": 3525, "trailing": 12542, "bingham": 24579, "##tead": 14565, "##\u10db": 29984, "sanders": 12055, "adjust": 14171, "monsieur": 21380, "##ity": 3012, "outdoors": 19350, "lanka": 7252, "fremont": 22550, "bloc": 15984, "521": 26963, "rescues": 26001, "mining": 5471, "227": 21489, "##nting": 24360, "sonya": 27926, "fisted": 28273, "bullock": 25200, "##grate": 22780, "cows": 17188, "organization": 3029, "depiction": 15921, "pride": 6620, "variant": 8349, "chevrolet": 14724, "hereditary": 14800, "kindergarten": 11793, "emi": 12495, "1884": 6988, "weighing": 15243, "deliberate": 15063, "[unused174]": 179, "##isen": 28992, "watery": 28259, "defeats": 14222, "rolling": 5291, "infringement": 20701, "christopher": 5696, "nicky": 20158, "champion": 3410, "graceful": 19415, "sunglasses": 17072, "pamphlets": 24752, "stuffing": 28652, "hitler": 8042, "handbook": 14812, "draining": 19689, "ranger": 11505, "qualification": 8263, "physician": 7522, "mandy": 18193, "harm": 7386, "shields": 11824, "prem": 26563, "spun": 7455, "\u6c11": 1892, "quan": 24110, "##\u11b8": 30024, "burrows": 22009, "archaic": 19261, "grasping": 20854, "ripple": 24644, "prosperity": 14165, "fronted": 23291, "sindh": 20284, "monitor": 8080, "theoretical": 9373, "bands": 4996, "refugee": 13141, "gould": 14913, "efforts": 4073, "artefacts": 25762, "subjective": 20714, "february": 2337, "strength": 3997, "[unused765]": 770, "containment": 29174, "climbed": 6589, "swearing": 25082, "river": 2314, "someone": 2619, "specialty": 12233, "sentence": 6251, "limp": 14401, "ram": 8223, "hypothetical": 25613, "praises": 27128, "partly": 6576, "craig": 7010, "[unused135]": 140, "benedictine": 21139, "nonfiction": 25753, "##\u5e74": 30366, "affiliate": 8727, "228": 22238, "packers": 15285, "identified": 4453, "rotary": 16933, "\u0641": 1291, "[unused52]": 53, "victoria": 3848, "35": 3486, "carrie": 13223, "##lid": 21273, "outgoing": 22011, "relevant": 7882, "[unused798]": 803, "towers": 7626, "surname": 11988, "khalifa": 27925, "honeymoon": 19227, "aboard": 7548, "aqueduct": 24016, "print": 6140, "##rating": 15172, "combustion": 16513, "placed": 2872, "precedent": 20056, "jacques": 7445, "##hog": 25852, "spat": 14690, "macmillan": 15434, "lori": 18669, "calmly": 12885, "wealth": 7177, "##\u2191": 30112, "distribute": 16062, "puget": 27879, "[unused463]": 468, "##rle": 20927, "wary": 15705, "complexion": 28838, "seeing": 3773, "checking": 9361, "marcel": 13389, "berry": 10498, "interface": 8278, "##rose": 13278, "weekdays": 19759, "1796": 13885, "uzbekistan": 17065, "coding": 16861, "snacks": 27962, "silver": 3165, "##eto": 18903, "##wl": 13668, "banner": 9484, "roses": 10529, "[unused840]": 845, "saturn": 14784, "shatter": 27271, "[unused887]": 892, "##tadt": 18808, "determine": 5646, "chow": 20209, "##rted": 17724, "chassis": 11832, "offshore": 12195, "##zai": 25290, "iceland": 10399, "submitted": 7864, "sustained": 8760, "york": 2259, "logistical": 28961, "dial": 13764, "map": 4949, "[unused40]": 41, "@": 1030, "boroughs": 21413, "obey": 15470, "mustache": 28786, "maintained": 5224, "clinic": 9349, "##lr": 20974, "##fo": 14876, "usher": 20774, "impressed": 7622, "charge": 3715, "elected": 2700, "shortage": 15843, "tun": 27112, "promoters": 26512, "fingernails": 21243, "rams": 13456, "wildlife": 6870, "contrasted": 22085, "electorate": 13694, "mountain": 3137, "wilton": 26407, "[unused171]": 176, "electronically": 28926, "edith": 13257, "strategies": 9942, "precisely": 10785, "##nesia": 21509, "colonial": 5336, "153": 16710, "##tai": 15444, "morphological": 24012, "\u064a": 1300, "guitarists": 28523, "astonishing": 26137, "retirement": 5075, "##\u5ddd": 30361, "liz": 9056, "javier": 13824, "control": 2491, "315": 22904, "flanking": 24958, "##our": 8162, "\u00a9": 1075, "dormant": 22170, "genome": 13458, "##idad": 27893, "mounting": 15986, "penetrate": 19136, "persuasion": 27577, "##nel": 11877, "flavors": 26389, "##hill": 7100, "\u672c": 1876, "allotted": 23932, "sheets": 8697, "appointing": 28050, "queens": 8603, "plank": 24000, "##bell": 17327, "pills": 15345, "arresting": 28427, "should": 2323, "targeted": 9416, "holds": 4324, "##\u028a": 29698, "##taff": 22542, "piss": 18138, "loyal": 8884, "##zu": 9759, "papa": 13008, "stored": 8250, "milano": 21613, "fuel": 4762, "chat": 11834, "##ner": 3678, "\u4eee": 1761, "anxiety": 10089, "year": 2095, "aqua": 28319, "affair": 6771, "saw": 2387, "cody": 13326, "acceleration": 16264, "deserts": 28858, "protege": 28567, "circulated": 17640, "hammer": 8691, "stricken": 16654, "devastated": 13879, "##ivating": 17441, "nun": 16634, "##boat": 11975, "hokkaido": 20826, "##orescence": 20030, "musique": 25784, "overshadowed": 28604, "mutation": 16221, "extravagant": 27856, "architecture": 4294, "1750": 18171, "##ence": 10127, "manufacturing": 5814, "withdrawal": 10534, "##\u00ab": 29654, "pyrenees": 22696, "coal": 5317, "ranges": 8483, "employed": 4846, "winner": 3453, "quoting": 27394, "[unused214]": 219, "pie": 11345, "sheikh": 12840, "compelled": 15055, "eki": 23174, "figured": 6618, "meiji": 23214, "anyone": 3087, "merrill": 16239, "hua": 23064, "##bha": 22655, "##yr": 12541, "panic": 6634, "conquest": 9187, "[unused736]": 741, "miriam": 16925, "install": 16500, "necklace": 13016, "cardboard": 19747, "newsweek": 26948, "downward": 14047, "ingredient": 21774, "jupiter": 13035, "1862": 6889, "summons": 24814, "towed": 18948, "##thor": 27844, "willingly": 18110, "gregory": 7296, "##cher": 7474, "hays": 29051, "sir": 2909, "cobb": 17176, "##zhi": 19436, "dalton": 12413, "henderson": 9481, "arya": 26140, "tending": 25069, "##mar": 7849, "murderers": 28882, "##\u209b": 30098, "remade": 26943, "unarmed": 23206, "##\u0628": 29816, "famed": 15607, "1987": 3055, "\u0bb0": 1391, "##rong": 17583, "[unused93]": 94, "[unused879]": 884, "jackie": 9901, "animated": 6579, "defect": 21262, "##\u0e23": 29953, "invoked": 24959, "pleasant": 8242, "[unused603]": 608, "##ces": 9623, "##tty": 15353, "##37": 24434, "##vara": 24516, "prestige": 14653, "##dice": 24598, "43": 4724, "provider": 10802, "stopped": 3030, "aisle": 12485, "essence": 11305, "graphical": 20477, "tie": 5495, "assassin": 12025, "raped": 15504, "##ths": 26830, "panama": 8515, "tired": 5458, "guru": 11972, "happy": 3407, "petersburg": 8062, "harmonic": 19452, "##fi": 8873, "monterrey": 26843, "##mah": 25687, "friendly": 5379, "fin": 10346, "prescribed": 16250, "eclectic": 20551, "ask": 3198, "55th": 29075, "mk": 12395, "vip": 21722, "attractions": 13051, "greeks": 13176, "[unused589]": 594, "lockheed": 17646, "ortiz": 19439, "melting": 13721, "##tooth": 19392, "bane": 25163, "threatening": 8701, "consoles": 22659, "windy": 27370, "\u00b6": 1086, "expenditure": 20700, "aaa": 13360, "##60": 16086, "prosecutor": 12478, "rocked": 14215, "meat": 6240, "potter": 10693, "[unused223]": 228, "mort": 22294, "kilometers": 7338, "##mos": 15530, "kate": 5736, "obeyed": 22665, "louder": 10989, "dani": 19522, "sort": 4066, "raise": 5333, "##lock": 7878, "metacritic": 14476, "alarmed": 19260, "ridges": 16386, "pondered": 28347, "ol": 19330, "google": 8224, "pixel": 22138, "rippled": 26862, "homosexual": 15667, "divert": 27345, "cracking": 15729, "advocates": 13010, "wedge": 17632, "coastal": 5780, "##dge": 11818, "##ignment": 24838, "kala": 26209, "##redo": 23417, "rutgers": 18607, "sheldon": 19369, "marilyn": 14749, "##ze": 4371, "greta": 26111, "[unused650]": 655, "erich": 17513, "juvenile": 11799, "uncovered": 14486, "noble": 7015, "construct": 9570, "byrne": 14928, "##hein": 26496, "motionless": 19917, "hairy": 15892, "reflections": 16055, "horribly": 27762, "##aged": 18655, "makeshift": 19368, "vatican": 12111, "gaddafi": 28924, "##\u8cb4": 30479, "console": 10122, "crashes": 19119, "cooled": 12981, "##heart": 22375, "icons": 18407, "booths": 27612, "surgery": 5970, "sailed": 7434, "warmly": 22775, "dr": 2852, "synthesizer": 13564, "##\u3066": 30191, "achilles": 23167, "bertie": 20743, "[unused278]": 283, "422": 29269, "continues": 4247, "##len": 7770, "giro": 19226, "landscaping": 28404, "disclosure": 19380, "anchorage": 21086, "##gen": 6914, "whitney": 9809, "villain": 12700, "screwed": 14180, "juris": 27551, "sheltered": 18304, "lesley": 23920, "pensions": 22024, "lowell": 15521, "blazers": 28513, "\u5b50": 1816, "[unused729]": 734, "ribbon": 10557, "[unused434]": 439, "vanderbilt": 17066, "asphalt": 16295, "ranging": 7478, "cincinnati": 7797, "sensation": 8742, "wesleyan": 19858, "##dington": 21504, "resignation": 8172, "horse": 3586, "[unused480]": 485, "composite": 12490, "##yle": 12844, "och": 28166, "gun": 3282, "leroy": 19103, "imported": 10964, "chateau": 11874, "[unused949]": 954, "can": 2064, "nilsson": 29376, "dressing": 11225, "fault": 6346, "separated": 5459, "operas": 14281, "stirring": 18385, "\u00b9\u2044\u2082": 18728, "##acker": 25418, "marian": 14042, "rodgers": 15652, "capacity": 3977, "##ar": 2906, "moe": 22078, "sherwood": 19427, "squat": 26783, "##bular": 28808, "##rricular": 21231, "\u043e": 1193, "manipulate": 17708, "mv": 19842, "legged": 15817, "facebook": 9130, "it": 2009, "nothing": 2498, "somme": 25158, "baha": 13253, "##sto": 16033, "photon": 26383, "create": 3443, "daphne": 16847, "dozen": 6474, "firth": 25138, "##lang": 25023, "##oia": 25463, "decreases": 17913, "\u30de": 1723, "police": 2610, "##weight": 11179, "felicia": 27579, "choreographed": 23317, "hooper": 23717, "scowl": 19981, "winslow": 26600, "##rman": 14515, "lotus": 13030, "##an": 2319, "genevieve": 20245, "centered": 8857, "##rcle": 21769, "##litz": 24725, "##*": 29621, "weimar": 20695, "##ten": 6528, "ruin": 10083, "[unused748]": 753, "footing": 22849, "##mpt": 27718, "characteristic": 8281, "##rain": 21166, "reno": 17738, "phelps": 20475, "\u304d": 1652, "##yst": 27268, "fungus": 16622, "jae": 22770, "inquired": 24849, "##oj": 29147, "odessa": 19693, "##lass": 27102, "tractors": 28292, "\u30ad": 1701, "[unused915]": 920, "atkinson": 18646, "inspirational": 28676, "much": 2172, "biological": 6897, "##tner": 18885, "##vius": 26055, "dominion": 13738, "collaborated": 8678, "rotting": 22005, "assemblies": 17720, "freud": 19338, "pear": 28253, "charleston": 10907, "zee": 23727, "scheduling": 19940, "bureau": 4879, "yunnan": 21607, "curran": 19649, "informed": 6727, "netflix": 20907, "swings": 18755, "[unused743]": 748, "numbered": 8597, "noteworthy": 19144, "impromptu": 29213, "horst": 28565, "worst": 5409, "transported": 9687, "\u2087": 1554, "hostess": 22566, "margin": 7785, "hurdle": 27630, "oppressive": 28558, "orthodoxy": 26582, "ferocious": 27863, "baker": 6243, "athlete": 8258, "muster": 20327, "##agger": 27609, "118": 12963, "##car": 10010, "##escence": 28964, "##\u5802": 30331, "fists": 10006, "exercised": 17747, "patted": 11930, "rooted": 15685, "migratory": 22262, "carpets": 27997, "##cats": 19588, "##uro": 10976, "lakers": 18264, "detonated": 28110, "innocence": 12660, "fuss": 28554, "minsk": 20790, "corinne": 26879, "pere": 23976, "bros": 10243, "shannon": 10881, "00": 4002, "##nx": 26807, "kei": 26679, "delivers": 18058, "ralph": 6798, "ae": 29347, "##\u116e": 30014, "nevada": 7756, "swords": 10689, "received": 2363, "descent": 6934, "mgm": 15418, "offers": 4107, "digging": 10443, "##\u2190": 30111, "##finger": 20349, "temps": 29023, "\u0252": 1111, "turquoise": 28653, "phonetic": 26664, "##ulf": 21007, "bellamy": 25544, "stimuli": 22239, "\u02e3": 1153, "##ricted": 20623, "differentiation": 20582, "##\u1d65": 30045, "formulas": 25814, "cuba": 7394, "medley": 13863, "cuffs": 24347, "photographs": 7008, "braves": 13980, "[unused238]": 243, "##laya": 22923, "phrases": 15672, "ciudad": 20759, "mcleod": 25363, "fa": 6904, "perhaps": 3383, "excavations": 14018, "renovations": 15576, "[unused623]": 628, "gallagher": 17297, "mode": 5549, "coulter": 28293, "tokyo": 5522, "\u0b95": 1382, "harold": 7157, "##00": 8889, "dover": 13985, "##ils": 12146, "classroom": 9823, "sarcasm": 20954, "death": 2331, "bhutan": 18768, "jem": 24193, "bastion": 26829, "job": 3105, "internment": 29041, "37": 4261, "carr": 12385, "leo": 6688, "mythological": 21637, "##kovic": 14733, "\u30ea": 1732, "[unused969]": 974, "subset": 16745, "experimented": 20918, "punching": 19477, "\u0436": 1186, "bourne": 15803, "counted": 8897, "slab": 17584, "kenya": 7938, "skyline": 21343, "##itor": 15660, "rochdale": 26109, "blurred": 18449, "##bina": 21114, "counts": 9294, "[unused144]": 149, "sphinx": 27311, "canals": 17263, "competitions": 6479, "bach": 10384, "##rad": 12173, "closeness": 28398, "surrounds": 20626, "oppression": 20489, "##\u028e": 29701, "inning": 12994, "ambushed": 22168, "incarcerated": 23995, "##war": 9028, "gibson": 9406, "obituary": 20815, "##\u0f63": 29971, "robots": 13507, "ascension": 18071, "tandem": 18231, "unless": 4983, "##stems": 29189, "argyll": 27365, "childhood": 5593, "those": 2216, "benign": 28378, "weighed": 12781, "overboard": 27089, "vital": 8995, "sails": 17553, "together": 2362, "diaspora": 18239, "currency": 9598, "leaning": 6729, "##\u3064": 30190, "hampshire": 7035, "dorchester": 27252, "enclosure": 17539, "yielding": 21336, "grains": 17588, "calvin": 11130, "vu": 24728, "##ree": 9910, "moment": 2617, "##pha": 21890, "##34": 22022, "##ind": 22254, "manchester": 5087, "mcdowell": 25005, "piloted": 27220, "##hop": 18471, "##ulton": 22145, "faulkner": 25109, "landon": 20642, "bulletin": 13146, "\u0e2a": 1420, "urging": 14328, "alloy": 17564, "stairway": 21952, "1920s": 6641, "depth": 5995, "\u6238": 1857, "tata": 23236, "sasha": 14673, "##tile": 15286, "[unused168]": 173, "halftime": 22589, "##cing": 6129, "couple": 3232, "highlighted": 11548, "rubbing": 10137, "municipal": 4546, "contracts": 8311, "assume": 7868, "christchurch": 15880, "44": 4008, "namibia": 15408, "234": 22018, "legends": 9489, "child": 2775, "investigative": 15025, "##\u308c": 30214, "gershwin": 25600, "##\u05d5": 29792, "##erin": 23282, "purge": 24694, "faint": 8143, "honors": 7836, "oil": 3514, "clinics": 17865, "##belle": 25766, "savanna": 22323, "##mple": 23344, "fresno": 20840, "villa": 6992, "wildcats": 19495, "constantine": 12790, "castro": 11794, "##ssee": 29522, "eli": 12005, "arctic": 10162, "respiratory": 16464, "mabel": 19486, "hardcover": 20990, "increasingly": 6233, "ventura": 21151, "set": 2275, "eucalyptus": 27111, "forks": 19896, "revolves": 19223, "southernmost": 21787, "nguyen": 16577, "amin": 24432, "attacked": 4457, "collision": 12365, "mcc": 23680, "##view": 8584, "these": 2122, "##ological": 10091, "[unused443]": 448, "lyon": 10241, "ventilation": 19536, "##c": 2278, "orton": 25161, "1886": 6929, "mouth": 2677, "happening": 6230, "mozart": 13177, "enslaved": 22216, "displacement": 13508, "ks": 29535, "accusation": 19238, "saharan": 24505, "racing": 3868, "richie": 14411, "##zie": 14272, "##liffe": 27931, "\u0263": 1117, "equipment": 3941, "bwf": 21215, "width": 9381, "jobs": 5841, "tyrol": 27193, "viable": 14874, "computed": 24806, "mini": 7163, "wagner": 10304, "applause": 20737, "##nical": 20913, "##vier": 14356, "purchase": 5309, "##esh": 9953, "accomplished": 8885, "[unused830]": 835, "humiliated": 26608, "report": 3189, "retaining": 12823, "\u025b": 1115, "sweden": 4701, "##\uff0f": 30518, "gupta": 20512, "##ison": 10929, "##sler": 20590, "1860s": 15914, "blossoms": 28766, "violins": 25877, "fantasy": 5913, "overwhelmingly": 24783, "grew": 3473, "##ors": 5668, "##ginal": 24965, "parameters": 11709, "##ggio": 20650, "nepal": 8222, "amusement": 9778, "##gara": 24864, "edited": 5493, "##stown": 13731, "calmed": 20869, "crucial": 10232, "##uation": 14505, "reviewed": 8182, "posterior": 15219, "products": 3688, "stomped": 21918, "charted": 12568, "danes": 27476, "##ize": 4697, "legislatures": 27977, "derek": 7256, "willie": 9893, "despite": 2750, "##stream": 21422, "[unused327]": 332, "tamil": 6008, "truth": 3606, "saudi": 8174, "lynch": 11404, "attribute": 17961, "basins": 22739, "sebastien": 28328, "catholic": 3234, "##ash": 11823, "leisure": 12257, "tank": 4951, "slavic": 13838, "springer": 17481, "physiological": 19389, "adherence": 29235, "motown": 22654, "shrub": 15751, "lobes": 24423, "skull": 7412, "clues": 15774, "78": 6275, "android": 11924, "marche": 28791, "fredrik": 25454, "roxy": 23682, "hugging": 17662, "experts": 8519, "williams": 3766, "crisis": 5325, "##\u056c": 29773, "k": 1047, "[unused142]": 147, "\u30db": 1722, "kobayashi": 28930, "\u30d5": 1720, "1758": 16832, "##ugh": 8953, "san": 2624, "tucker": 9802, "##\u30ec": 30260, "mirrors": 13536, "orderly": 23589, "robbers": 28019, "concludes": 14730, "bratislava": 22992, "drag": 8011, "##icide": 21752, "mug": 14757, "87": 6584, "semester": 13609, "##hang": 18003, "shops": 7340, "##aur": 21159, "##sari": 22740, "automatic": 6882, "patented": 16719, "\u7684": 1916, "supporting": 4637, "partnered": 12404, "##bolic": 18647, "reluctance": 21662, "dh": 28144, "[unused645]": 650, "praise": 8489, "emigrated": 11367, "afforded": 22891, "minors": 18464, "charting": 17918, "benefited": 19727, "kurdish": 15553, "tracks": 3162, "sapphire": 21965, "requests": 11186, "\u2015": 1518, "considers": 10592, "lang": 11374, "##uity": 18518, "nay": 29349, "##vid": 17258, "##ioned": 19798, "##80": 17914, "frederick": 5406, "readings": 15324, "southward": 22161, "frigate": 15437, "gods": 5932, "catalytic": 26244, "##\u116f": 30015, "##imeters": 28136, "genius": 11067, "penultimate": 25512, "regal": 21279, "communicating": 20888, "##udence": 29424, "deposed": 18298, "splashed": 22055, "ix": 11814, "nailed": 26304, "handicap": 15822, "mandolin": 17687, "follow": 3582, "zone": 4224, "##\u5206": 30301, "puzzles": 19672, "militants": 17671, "inverted": 20037, "racetrack": 28435, "quran": 21288, "italians": 16773, "modeled": 14440, "undercover": 16382, "root": 7117, "behavior": 5248, "patti": 22732, "1972": 3285, "loyalist": 23414, "conscription": 26329, "breuning": 18177, "silesia": 21872, "##ssi": 18719, "##yat": 26139, "[unused527]": 532, "palo": 24326, "labourers": 24043, "tangled": 14170, "##nst": 23808, "hopping": 26397, "339": 28977, "##\u110b": 29999, "steelers": 15280, "thatcher": 21127, "[unused694]": 699, "\u2033": 1532, "##uled": 18696, "scenic": 12916, "##)": 29620, "parallel": 5903, "##39": 23499, "semitic": 20604, "fest": 17037, "baths": 19692, "dynamic": 8790, "125": 8732, "soviets": 15269, "##hrer": 17875, "croix": 18733, "selangor": 28904, "keepers": 24018, "competent": 17824, "representation": 6630, "enchanted": 22454, "continuation": 13633, "giant": 5016, "champaign": 28843, "theta": 23963, "christi": 21359, "##ntine": 26730, "sample": 7099, "loaf": 27048, "isabella": 10323, "talents": 11725, "fleming": 13779, "76": 6146, "bags": 8641, "bluff": 14441, "joker": 19318, "formed": 2719, "contaminated": 19450, "va": 12436, "farms": 8623, "wharf": 16435, "funky": 24151, "dutch": 3803, "averaging": 14985, "tattoos": 18395, "betrayal": 14583, "razor": 15082, "##\u2217": 30125, "##ronia": 28140, "donate": 21357, "##sford": 17658, "##shida": 25541, "##tics": 14606, "##ove": 21818, "engulfed": 24692, "1917": 4585, "vito": 25550, "kang": 16073, "prism": 26113, "crowds": 12783, "organize": 10939, "\u4e09": 1741, "scattering": 17501, "kilda": 22633, "##lden": 28476, "##basket": 25351, "##box": 8758, "purchasing": 13131, "##gil": 20142, "collector": 10018, "floats": 24885, "automobiles": 19207, "ceylon": 16447, "midnight": 7090, "##fully": 7699, "madeleine": 19324, "managed": 3266, "##kled": 19859, "[unused514]": 519, "sailors": 11279, "muted": 22124, "maintenance": 6032, "##koto": 24886, "beijing": 7211, "swindon": 22350, "hamburg": 8719, "sneak": 13583, "strongly": 6118, "##\u2663": 30151, "parachute": 13561, "brushing": 12766, "##\u96c4": 30500, "1736": 28192, "##farlane": 23511, "[unused529]": 534, "downs": 12482, "poe": 18922, "##rrado": 27933, "leah": 14188, "##eit": 20175, "##uaries": 22579, "incompatible": 25876, "##fahan": 28975, "reluctant": 11542, "indication": 12407, "slogan": 14558, "canberra": 13107, "updates": 14409, "prostate": 25086, "##claiming": 27640, "muse": 18437, "hammered": 25756, "poems": 5878, "stake": 8406, "875": 27658, "stature": 21120, "##ried": 11998, "sha": 21146, "[unused184]": 189, "##door": 23835, "legal": 3423, "persons": 5381, "affairs": 3821, "erect": 14908, "ashamed": 14984, "accuse": 26960, "strife": 27865, "manipulated": 20063, "padre": 28612, "skyscraper": 24581, "##lta": 24458, "sporadic": 24590, "gonzales": 24334, "causeway": 23336, "marco": 8879, "glide": 21096, "tucking": 25056, "rarely": 6524, "\u05ea": 1267, "##acy": 15719, "optical": 9380, "[unused888]": 893, "practitioners": 14617, "balancing": 20120, "stryker": 25429, "zaragoza": 25744, "inauguration": 17331, "unison": 18732, "tim": 5199, "coma": 16571, "evicted": 25777, "##oku": 21940, "\u9fb8": 1983, "cad": 28353, "enhanced": 9412, "##burn": 8022, "sparks": 12300, "##izan": 27334, "barbarian": 25075, "##bee": 11306, "##ls": 4877, "slit": 18036, "leaves": 3727, "wreck": 12006, "regard": 7634, "##osis": 12650, "begun": 5625, "tianjin": 26216, "norm": 13373, "mumbai": 8955, "##uru": 14129, "choir": 6596, "cochrane": 22329, "felipe": 17095, "[unused543]": 548, "mater": 16289, "fits": 16142, "##hesion": 21471, "\u5f73": 1845, "replay": 15712, "reach": 3362, "loop": 7077, "stockton": 19161, "loops": 15932, "maclean": 22528, "known": 2124, "##\u2088": 30084, "##\u2013": 30051, "##werk": 29548, "units": 3197, "hospitality": 15961, "resolved": 10395, "showed": 3662, "despised": 26626, "wheels": 7787, "growl": 13349, "each": 2169, "envoy": 19918, "emmett": 25685, "##\u8a01": 30475, "synth": 24203, "tsar": 17608, "carleton": 22273, "ugly": 9200, "francois": 8173, "similarity": 14402, "collar": 9127, "prospective": 17464, "te": 8915, "sparsely": 24961, "##\u0640": 29832, "cheyenne": 17778, "##y": 2100, "methyl": 25003, "celia": 18020, "1609": 28058, "[unused537]": 542, "##ono": 17175, "drown": 19549, "lunatic": 26594, "lynn": 9399, "accustomed": 17730, "\u30aa": 1699, "##clusive": 23633, "##ill": 8591, "1795": 13397, "ethiopia": 11154, "smash": 15132, "walter": 4787, "sector": 4753, "##\u03be": 29729, "mischief": 25166, "endeavors": 28809, "sacked": 14159, "##zong": 13150, "##ered": 6850, "compared": 4102, "##fast": 24333, "il": 6335, "##\u79be": 30453, "amazed": 15261, "##kat": 24498, "##zziness": 29212, "sob": 17540, "mutter": 23457, "gr": 24665, "chuck": 8057, "sabres": 26969, "simultaneously": 7453, "integrate": 17409, "sight": 4356, "lookout": 19052, "nicolas": 9473, "pressure": 3778, "1825": 11384, "##gia": 10440, "zhao": 15634, "turing": 28639, "298": 27240, "supportive": 16408, "northwestern": 7855, "waterway": 23668, "##entation": 19304, "##the": 10760, "catholics": 10774, "relocation": 18344, "##rator": 16259, "##lal": 13837, "recoil": 27429, "crude": 13587, "##alla": 25425, "##oslav": 23085, "cages": 27157, "scully": 25686, "\u1d3a": 1494, "wit": 15966, "soundtracks": 24245, "##nets": 22781, "documentaries": 15693, "[unused708]": 713, "attention": 3086, "circulating": 22458, "practical": 6742, "forefront": 22870, "greedy": 20505, "complied": 26946, "hackett": 28630, "bays": 13933, "##\u099b": 29893, "sadie": 21330, "##cit": 26243, "[unused54]": 55, "malone": 16321, "ghanaian": 27202, "slits": 29199, "recordings": 5633, "##mler": 18602, "##ocating": 27483, "fiji": 11464, "boiled": 17020, "[unused357]": 362, "freight": 8441, "widening": 17973, "invite": 13260, "##rdo": 20683, "chaos": 8488, "dirt": 6900, "layne": 22452, "6": 1020, "braced": 15515, "libya": 12917, "equality": 9945, "module": 11336, "exclude": 23329, "##uddin": 17375, "##rell": 16230, "##ado": 9365, "recipes": 19328, "european": 2647, "firearm": 23646, "enabled": 9124, "samba": 29086, "500": 3156, "babe": 11561, "##hawk": 17998, "websites": 11744, "nadu": 10703, "distressed": 24305, "##icing": 23553, "[unused576]": 581, "puck": 22900, "nina": 9401, "##\u3089": 30211, "wandered": 13289, "cyclist": 14199, "ebert": 22660, "[unused345]": 350, "netball": 25034, "station": 2276, "stain": 21101, "fai": 26208, "poster": 13082, "yokohama": 20507, "[unused265]": 270, "directorate": 13634, "##itt": 12474, "granite": 9753, "fortress": 7841, "81": 6282, "amusing": 19142, "range": 2846, "##rba": 28483, "warrant": 10943, "\u7687": 1917, "ua": 25423, "\u0283": 1130, "celebrations": 12035, "##um": 2819, "sleeps": 25126, "##uously": 28078, "masks": 15806, "##yse": 23274, "gothenburg": 22836, "illusion": 12492, "evaluate": 16157, "##gger": 13327, "2003": 2494, "shillings": 29332, "hatred": 11150, "##\uff08": 30513, "connects": 8539, "##pired": 21649, "thirteen": 7093, "decidedly": 27873, "lethal": 12765, "berman": 29482, "sigismund": 26748, "upland": 25770, "brady": 10184, "modulation": 25502, "##oned": 17799, "magnus": 10045, "becker": 15309, "##yas": 16303, "circle": 4418, "forums": 21415, "chick": 14556, "defective": 28829, "pouring": 13053, "##zen": 10431, "\u9580": 1968, "nak": 17823, "arrive": 7180, "##\u30e5": 30255, "##ability": 8010, "treasurer": 10211, "pools": 12679, "cipher": 27715, "detainees": 26485, "##\u4f0a": 30288, "##liche": 27412, "##aha": 23278, "croatia": 8097, "##ais": 15593, "417": 27519, "dora": 21008, "mistaken": 13534, "xml": 20950, "top": 2327, "fulfilling": 21570, "rewards": 19054, "##vres": 24790, "embroidery": 29507, "treats": 18452, "helpful": 14044, "strained": 12250, "sql": 29296, "guo": 22720, "oriental": 11481, "##fm": 16715, "##gami": 26517, "phillip": 10852, "reserved": 9235, "thoroughbred": 18359, "spoiled": 19582, "frowned": 7335, "regarded": 5240, "refreshing": 27150, "fairness": 26935, "humanity": 8438, "\u21c4": 1589, "spanning": 13912, "sustain": 15770, "##rcus": 29006, "represent": 5050, "traction": 16493, "ride": 4536, "insides": 19008, "##inkles": 28562, "dismantled": 17293, "tones": 12623, "sts": 8541, "\u0142": 1105, "[unused976]": 981, "decorations": 14529, "##eased": 25063, "product": 4031, "##nessy": 25441, "some": 2070, "pan": 6090, "whoever": 9444, "##rang": 24388, "mendez": 28950, "militia": 8396, "##ammed": 27479, "\u00be": 1093, "everton": 18022, "rothschild": 19712, "bit": 2978, "sponsor": 10460, "heaven": 6014, "tulane": 27437, "##dict": 29201, "crippled": 24433, "\u2044": 1535, "##ments": 8163, "push": 5245, "sonic": 12728, "##de": 3207, "[unused478]": 483, "commenced": 8420, "shortages": 22623, "perception": 10617, "chill": 10720, "2005": 2384, "wal": 24547, "1845": 9512, "dormitory": 21538, "adjustable": 26404, "enforcement": 7285, "slightly": 3621, "##kee": 20553, "omitted": 16647, "\u795e": 1925, "turn": 2735, "woke": 8271, "oakley": 28876, "##sf": 22747, "succeeding": 13034, "mist": 11094, "##\u3081": 30206, "pierre": 5578, "rory": 14285, "erased": 23516, "friendship": 6860, "adolf": 12500, "hunan": 27374, "assess": 14358, "arriving": 7194, "1885": 6571, "colombia": 7379, "oddly": 15056, "winthrop": 28974, "spends": 15970, "subsidies": 21762, "reintroduced": 28263, "##pg": 26952, "archway": 28189, "sang": 6369, "scholar": 6288, "##\u21d2": 30119, "pissed": 9421, "##ncies": 14767, "mirage": 21483, "artery": 16749, "sentinel": 16074, "lid": 11876, "perspective": 7339, "enroll": 25612, "injustice": 21321, "[unused686]": 691, "bayou": 24818, "265": 20549, "hybrids": 23376, "##jia": 26541, "\u0261": 1116, "mantra": 25951, "##cide": 27082, "credits": 6495, "##gno": 26745, "draw": 4009, "brow": 8306, "##bius": 17028, "essential": 6827, "cobalt": 25627, "answered": 4660, "fleet": 4170, "carly": 18431, "stephan": 15963, "fairs": 21947, "meg": 12669, "instructor": 9450, "octopus": 24318, "##posed": 19155, "hungry": 7501, "\u30fb": 1738, "cpc": 28569, "lyricist": 19489, "sobbed": 25960, "##\u06af": 29842, "commissioners": 12396, "[unused273]": 278, "2d": 14134, "foundry": 19853, "reflects": 11138, "lucan": 20764, "wen": 19181, "recommend": 16755, "##stered": 24167, "##vino": 26531, "stacked": 16934, "hurling": 10839, "aquatic": 13582, "##ski": 5488, "cultivation": 13142, "mcdonald": 9383, "puff": 23893, "##rice": 17599, "308": 24232, "financial": 3361, "innate": 25605, "neon": 16231, "appears": 3544, "arthritis": 27641, "##ek": 5937, "[unused461]": 466, "\u0bae": 1389, "disappointed": 9364, "enrico": 21982, "##\u98a8": 30503, "ok": 7929, "konrad": 22958, "amnesty": 16154, "sumner": 23922, "sweet": 4086, "##\u044b": 29113, "buena": 27493, "mantle": 16019, "##ull": 18083, "norte": 19931, "etienne": 16821, "paralympics": 15600, "envelope": 11255, "noticeably": 25327, "discovers": 9418, "acquaintance": 18363, "ancestors": 10748, "chores": 27091, "lonely": 9479, "drugs": 5850, "chosen": 4217, "##helm": 24546, "economically": 15318, "ball": 3608, "atrocities": 23482, "linen": 17517, "admiration": 17005, "##bria": 21556, "reforms": 8818, "distinguishing": 20852, "volley": 28073, "vita": 19300, "photo": 6302, "spitfire": 28323, "token": 19204, "prefect": 19402, "backgrounds": 15406, "##hawks": 16043, "whistled": 26265, "temple": 3379, "##\u0940": 29878, "kathmandu": 28045, "speaks": 8847, "dexter": 14375, "sights": 15925, "aristotle": 17484, "traveling": 7118, "bey": 20289, "bombs": 9767, "gatherings": 21403, "confinement": 21551, "\u0292": 1138, "huddersfield": 19715, "delivering": 12771, "##lay": 8485, "\u091f": 1320, "exclaimed": 12713, "herbert": 7253, "shankar": 17429, "congregations": 16850, "[": 1031, "alfred": 6152, "chin": 5413, "##nr": 16118, "pulses": 23894, "evergreen": 16899, "believe": 2903, "##ago": 23692, "nostalgia": 26968, "planetary": 17700, "taunton": 28181, "[unused816]": 821, "influx": 18050, "cavendish": 23570, "understood": 5319, "##vine": 20534, "jason": 4463, "advance": 5083, "##nni": 23500, "blue": 2630, "armament": 14410, "steamship": 23869, "coventry": 13613, "incomes": 29373, "requires": 5942, "headlights": 18167, "mayfield": 27224, "[unused896]": 901, "coated": 15026, "grind": 23088, "##\uff09": 30514, "busy": 5697, "organizer": 19012, "##\u826f": 30464, "installations": 14111, "\u207f": 1546, "nationally": 9582, "daddy": 8600, "accepting": 10564, "##stov": 29473, "detained": 14620, "vampires": 6144, "ledger": 27106, "warnings": 16234, "petitioned": 22527, "harp": 14601, "##gin": 11528, "secure": 5851, "conqueror": 25466, "deal": 3066, "lb": 6053, "landlord": 18196, "grammy": 8922, "increase": 3623, "##\u0f56": 29967, "[unused421]": 426, "italics": 19408, "signal": 4742, "mbe": 20301, "\u0631": 1280, "rejoin": 25261, "experimentation": 21470, "##nable": 22966, "bull": 7087, "christophe": 23978, "##eck": 11012, "candle": 13541, "##yn": 6038, "conferred": 15186, "delay": 8536, "handling": 8304, "##\u1174": 30018, "saturated": 23489, "atoms": 13353, "##\u7ae0": 30458, "##izations": 22318, "##ganj": 22738, "lure": 17256, "linda": 8507, "\u2261": 1607, "polynomial": 17505, "##=": 29630, "outward": 15436, "achieved": 4719, "acquisitions": 19530, "topological": 24309, "intact": 10109, "##24": 18827, "tool": 6994, "ruben": 19469, "1880": 6756, "##name": 18442, "settlements": 7617, "cocktail": 18901, "\u738b": 1909, "propagation": 20594, "patches": 13864, "siren": 19558, "##\u00bd": 13714, "sydney": 3994, "silenced": 25030, "##iii": 28954, "twilight": 13132, "trademark": 11749, "##$": 29615, "\u5fc3": 1849, "cafe": 7668, "alexei": 21219, "##eres": 18702, "hopes": 8069, "1910s": 28088, "##kushima": 24917, "##felt": 26675, "shot": 2915, "1918": 4271, "##cel": 29109, "lengths": 10742, "upgrading": 25925, "soundtrack": 6050, "##mined": 25089, "lips": 2970, "arrows": 12563, "assaults": 22664, "arteries": 28915, "teen": 9458, "##ddin": 18277, "mig": 19117, "retaliation": 18695, "##mber": 21784, "rendering": 14259, "##\u3057": 30183, "haunt": 24542, "taste": 5510, "eruptions": 28448, "cars": 3765, "264": 21611, "##\u10d1": 29975, "unto": 19662, "xii": 14371, "unseen": 16100, "expelled": 10016, "bargaining": 21990, "exempt": 11819, "##eve": 18697, "bio": 16012, "riaa": 22716, "terminology": 18444, "[unused880]": 885, "gratitude": 15531, "chancel": 16482, "end": 2203, "approved": 4844, "annabelle": 24722, "cities": 3655, "hurricane": 7064, "hypothesis": 10744, "bury": 11010, "planets": 11358, "gerhard": 21037, "specialization": 28031, "patrick": 4754, "gaul": 26522, "happened": 3047, "336": 27954, "\u9234": 1965, "hq": 16260, "nike": 18368, "scala": 26743, "exceeds": 23651, "181": 18596, "calling": 4214, "lister": 27177, "##\u0442": 22919, "finale": 9599, "p": 1052, "duct": 23245, "uncle": 4470, "lena": 14229, "transmitter": 11659, "bert": 14324, "##ue": 5657, "childless": 26983, "planting": 14685, "gen": 8991, "##me": 4168, "elmer": 21464, "lay": 3913, "boards": 7923, "[unused219]": 224, "compressor": 29329, "expressway": 11720, "binding": 8031, "mathematicians": 29374, "refuse": 10214, "hammersmith": 28420, "##ep": 13699, "shelves": 15475, "siemens": 22108, "##yan": 7054, "lissa": 20244, "democratic": 3537, "industrialist": 21691, "autism": 19465, "linger": 26577, "\u092f": 1332, "while": 2096, "tip": 5955, "benton": 18685, "nemesis": 21363, "apparel": 26278, "\u09b9": 1377, "##arte": 24847, "swelled": 21851, "pomeranian": 17717, "managerial": 24465, "mirror": 5259, "contentious": 29308, "captivity": 16187, "ceased": 7024, "##iu": 17922, "[unused615]": 620, "riders": 8195, "##cen": 27524, "quality": 3737, "accent": 9669, "cave": 5430, "##ulata": 18060, "##kis": 14270, "sometimes": 2823, "battista": 28422, "reverse": 7901, "detectives": 18145, "bedrock": 28272, "clenching": 23970, "rig": 19838, "heidi": 21372, "196": 20035, "greene": 11006, "##ppet": 29519, "thread": 11689, "landowners": 20152, "landscapes": 12793, "boxer": 10423, "[unused722]": 727, "protagonists": 21989, "endorsed": 11763, "proceeding": 18207, "telenovela": 25754, "senior": 3026, "engineer": 3992, "bad": 2919, "##\u0282": 29695, "1967": 3476, "execution": 7781, "##\u0cbe": 29938, "darmstadt": 28381, "shuttle": 10382, "ky": 18712, "[unused678]": 683, "relics": 16712, "fairfax": 17833, "##child": 19339, "##yne": 9654, "##\u00b7": 29661, "\u099a": 1356, "cuthbert": 24583, "tri": 13012, "##rst": 12096, "daniela": 28541, "wall": 2813, "abusive": 20676, "glued": 22805, "separation": 8745, "kid": 4845, "chiefly": 15897, "travellers": 19284, "cover": 3104, "[unused442]": 447, "claiming": 6815, "##hly": 27732, "formerly": 3839, "bear": 4562, "belief": 6772, "##s\u0142aw": 23305, "strewn": 25259, "batavia": 28917, "nur": 27617, "furry": 28662, "judah": 23022, "##ink": 19839, "outlaws": 23107, "phi": 13569, "pow": 23776, "##ouring": 27897, "merging": 16468, "today": 2651, "handy": 18801, "441": 28015, "turkish": 5037, "irritation": 17373, "savannah": 10891, "struggles": 11785, "##iography": 26535, "brooke": 11535, "grasses": 21620, "targets": 7889, "##oping": 17686, "##cup": 15569, "buckinghamshire": 21712, "operates": 5748, "74": 6356, "velvet": 10966, "plumage": 28764, "oklahoma": 5858, "snack": 19782, "alignment": 12139, "##mori": 24610, "industrial": 3919, "overnight": 11585, "##rling": 22036, "##poo": 24667, "shortly": 3859, "luck": 6735, "##dae": 6858, "[unused866]": 871, "dona": 24260, "dans": 18033, "confronted": 12892, "coco": 25033, "addison": 18403, "1997": 2722, "nitrate": 29607, "largely": 4321, "dropped": 3333, "irwin": 17514, "mana": 24951, "mark": 2928, "awesome": 12476, "elaborated": 25187, "mistress": 10414, "##coat": 16531, "dispersal": 27602, "[unused714]": 719, "elderly": 9750, "deteriorated": 20111, "jewels": 15565, "concentrated": 8279, "transformers": 19081, "blame": 7499, "##tro": 13181, "##nikov": 22576, "wrought": 18481, "distant": 6802, "buffer": 17698, "similarly": 6660, "approached": 5411, "disciplined": 28675, "##itz": 8838, "cromwell": 16759, "[unused654]": 659, "shit": 4485, "victor": 5125, "tatiana": 22725, "laborers": 23428, "very": 2200, "##ent": 4765, "az": 17207, "sellers": 19041, "raoul": 22063, "horrible": 9202, "pancakes": 28470, "\u0632": 1281, "carlton": 12989, "[unused192]": 197, "kunst": 28145, "andy": 5557, "##moto": 15319, "undergo": 13595, "call": 2655, "1762": 20827, "rt": 19387, "##meter": 22828, "watched": 3427, "administer": 21497, "abyss": 22159, "##kic": 29493, "ruthless": 18101, "reprint": 25364, "promenade": 26815, "##\u5357": 30311, "cricketer": 9490, "##\u5408": 30318, "[unused836]": 841, "cherry": 9115, "nuevo": 22250, "frey": 20068, "1540": 27536, "affectionately": 28734, "pearson": 12874, "##trics": 29392, "convictions": 20488, "relief": 4335, "##ub": 12083, "##\u30c1": 30236, "##ught": 18533, "physics": 5584, "reactors": 22223, "##ved": 7178, "##ately": 28239, "##mology": 20570, "violating": 20084, "religious": 3412, "collisions": 28820, "4": 1018, "kneeling": 16916, "mine": 3067, "[unused451]": 456, "##\u77f3": 30448, "fleeting": 25085, "##udged": 27066, "produced": 2550, "thorne": 14296, "##uga": 16377, "diplomatic": 8041, "functional": 8360, "korea": 4420, "tours": 7562, "seats": 4272, "cubs": 12469, "##\u2282": 30137, "bankers": 25375, "chrysler": 17714, "westchester": 25489, "pressured": 25227, "leaps": 29195, "sainte": 16947, "barrington": 26469, "drinks": 8974, "fossils": 11954, "consumers": 10390, "mills": 6341, "sweets": 26844, "brows": 11347, "##\u7cf9": 30460, "botany": 17018, "buildings": 3121, "##aar": 26526, "cemetery": 4528, "##och": 11663, "boating": 23639, "prototypes": 19599, "##\u30de": 30249, "scream": 6978, "magnificent": 12047, "det": 20010, "##ntly": 20630, "breton": 16659, "struck": 4930, "presently": 12825, "utterly": 12580, "cole": 5624, "narrator": 11185, "##pole": 15049, "scissors": 25806, "15th": 6286, "cherokee": 13796, "fighting": 3554, "cords": 24551, "##row": 10524, "brain": 4167, "receipt": 24306, "##lf": 10270, "rapper": 10687, "airbus": 20901, "mag": 23848, "shrieked": 22383, "funny": 6057, "swamps": 22722, "##ona": 7856, "##rney": 27114, "##hardt": 13778, "chan": 9212, "took": 2165, "##marine": 21966, "justin": 6796, "angela": 10413, "hydro": 18479, "##\u062f": 15394, "close": 2485, "spice": 17688, "##\u30ea": 30258, "cfa": 28125, "surveying": 19654, "[unused74]": 75, "reckon": 29072, "monarchy": 12078, "##59": 28154, "puebla": 27452, "do": 2079, "##elin": 18809, "cassette": 13903, "rope": 8164, "glaring": 16124, "##rden": 18246, "derrick": 18928, "##field": 3790, "##sal": 12002, "lays": 19764, "##vat": 22879, "brad": 8226, "enzymes": 16285, "lively": 17133, "\u2500": 1615, "settings": 10906, "collingwood": 20044, "shaded": 25273, "trustee": 13209, "sporting": 7419, "magdalene": 26890, "pets": 18551, "##logue": 24277, "ito": 23333, "insulation": 25710, "adams": 5922, "feather": 15550, "glancing": 10167, "boris": 11235, "transactions": 11817, "##comb": 18274, "##cted": 10985, "##miento": 28883, "bothered": 11250, "edmund": 9493, "stereotypes": 22807, "ballot": 10428, "##urg": 12514, "bulgaria": 8063, "mart": 20481, "delilah": 23006, "[unused116]": 121, "##trust": 24669, "gives": 3957, "wealthy": 7272, "latino": 7402, "dwell": 23120, "degradation": 16627, "##tham": 22536, "1881": 7005, "cree": 27831, "v6": 25275, "##gren": 13565, "##champ": 25450, "crept": 13147, "amara": 28599, "louie": 17438, "exposing": 14944, "fines": 21892, "[unused683]": 688, "faster": 5514, "##kon": 19648, "starred": 5652, "recognizes": 14600, "identifiable": 27800, "placement": 11073, "priced": 21125, "bavarian": 15097, "korean": 4759, "aerodynamic": 28033, "##bber": 29325, "##ld": 6392, "5": 1019, "putting": 5128, "victorian": 6652, "comeback": 12845, "component": 6922, "chris": 3782, "focusing": 7995, "throbbed": 27714, "consonant": 18265, "knit": 22404, "uncanny": 28953, "proposing": 21991, "avoided": 9511, "##las": 8523, "[unused289]": 294, "luxurious": 20783, "described": 2649, "isolate": 27152, "##uen": 24997, "inducing": 29290, "shoving": 15866, "harassed": 28186, "episcopal": 9134, "##bau": 27773, "narrower": 22546, "euros": 19329, "postponed": 14475, "rivals": 9169, "leaking": 24325, "[unused789]": 794, "winter": 3467, "cinderella": 21686, "##26": 23833, "keystone": 22271, "##jee": 16963, "##year": 29100, "ideally": 28946, "flashes": 16121, "257": 24368, "husky": 18758, "gig": 15453, "dancer": 8033, "moors": 24812, "privately": 9139, "inward": 20546, "joel": 8963, "gabe": 12900, "northbound": 20055, "\u4eba": 1756, "demonstrates": 16691, "optimistic": 21931, "tamara": 21772, "israelis": 28363, "formally": 6246, "##lifting": 26644, "ponder": 29211, "##cky": 17413, "colony": 5701, "metals": 11970, "##rdan": 26992, "requiring": 9034, "decorate": 29460, "oracle": 14721, "##itas": 24317, "registration": 8819, "sentai": 28650, "##otte": 28495, "destiny": 10461, "\u02b8": 1144, "ship": 2911, "##tees": 28313, "wearing": 4147, "unveiled": 11521, "trains": 4499, "padded": 20633, "vidal": 29259, "caution": 14046, "apartment": 4545, "floors": 8158, "metal": 3384, "scented": 25738, "extension": 5331, "helpless": 13346, "battalion": 4123, "hugely": 27564, "##mute": 26746, "lover": 7089, "mum": 12954, "##ake": 13808, "##edge": 24225, "lash": 25210, "reservoirs": 22535, "af": 21358, "cruising": 22206, "gym": 9726, "guinea": 7102, "improvised": 19641, "##tose": 22282, "sims": 18135, "coyotes": 26880, "hangs": 17991, "fear": 3571, "mound": 12048, "ladies": 6456, "sterling": 10933, "illuminating": 27816, "strait": 11195, "phase": 4403, "dating": 5306, "richmond": 6713, "sg": 22214, "3a": 23842, "inference": 28937, "shards": 23327, "zhou": 14367, "steering": 9602, "venetian": 15510, "[unused370]": 375, "##fted": 18915, "recognizable": 20123, "slowing": 18068, "steven": 7112, "gujarati": 26428, "cerebral": 18439, "reiterated": 28960, "##ece": 26005, "bonded": 20886, "watts": 11042, "occasional": 8138, "acacia": 24766, "pcs": 27019, "spaceship": 25516, "##\u653f": 30386, "deeper": 6748, "auditor": 20964, "orange": 4589, "##ial": 4818, "\u967d": 1973, "far": 2521, "manually": 21118, "##ask": 19895, "##obe": 20891, "comprises": 8681, "paulo": 9094, "vols": 18709, "coded": 22402, "sentimental": 23069, "\u7248": 1907, "##mity": 16383, "hirsch": 28127, "##lho": 28061, "presenters": 25588, "expansion": 4935, "\u02b0": 1140, "##\u0274": 29690, "perfection": 15401, "guy": 3124, "hinduism": 19632, "bypass": 11826, "resistant": 13070, "samples": 8168, "consciously": 24447, "plant": 3269, "##page": 13704, "jesuit": 13840, "classifications": 26739, "##\u30e9": 30257, "##ley": 3051, "##ssel": 21218, "retribution": 25928, "homicide": 18268, "haynes": 21805, "cornelius": 17354, "bela": 20252, "verdict": 14392, "gamble": 18503, "adversary": 27248, "\u1da0": 1512, "warned": 7420, "##\u1d62": 19109, "tossed": 7463, "westfield": 26584, "nippon": 19364, "vince": 12159, "aragon": 16146, "holland": 7935, "existed": 5839, "thumbs": 16784, "149": 17332, "guerra": 24698, "nephew": 7833, "tense": 9049, "scarce": 18782, "##\u570b": 30326, "crambidae": 21585, "##witz": 15362, "pads": 19586, "##illa": 9386, "backdrop": 18876, "journalist": 4988, "[unused696]": 701, "##vision": 17084, "##vill": 26548, "culminating": 16979, "##gli": 25394, "release": 2713, "##di": 4305, "banged": 22843, "alvaro": 24892, "68": 6273, "hassan": 13222, "##liest": 21292, "undertaking": 18457, "leigh": 11797, "##kos": 15710, "off": 2125, "##land": 3122, "\u092a": 1328, "trying": 2667, "tbs": 29584, "marking": 10060, "ronnie": 11688, "baking": 21522, "187": 19446, "pitched": 8219, "tremble": 20627, "[unused651]": 656, "dewey": 20309, "airplane": 13297, "psychologist": 15034, "cheese": 8808, "1711": 28455, "##\u90e1": 30485, "-": 1011, "coconut": 16027, "widowed": 22874, "fellowship": 7881, "chew": 21271, "drumming": 22980, "insults": 23862, "contender": 20127, "pei": 26850, "kong": 4290, "structured": 14336, "epidemic": 16311, "colonists": 15526, "rated": 6758, "titular": 12960, "peered": 10757, "purported": 27023, "##\u0f66": 29972, "prairie": 10996, "##rod": 14127, "acknowledge": 13399, "yves": 19687, "##\u03b2": 29720, "participant": 13180, "##mous": 27711, "##tlan": 28922, "mister": 12525, "17": 2459, "carlos": 5828, "diary": 9708, "matt": 4717, "turning": 3810, "reginald": 14435, "tends": 12102, "entire": 2972, "desperation": 15561, "retention": 20125, "wrestler": 10706, "brewery": 12161, "maximum": 4555, "##chan": 14856, "hollow": 8892, "##ken": 7520, "\u5343": 1784, "upgrade": 12200, "gottfried": 26142, "##eiro": 17166, "1752": 24736, "spartans": 24293, "liturgy": 21176, "taking": 2635, "click": 11562, "\u0f53": 1429, "mcgregor": 23023, "four": 2176, "survival": 7691, "paired": 12739, "##asurable": 28329, "##\u0454": 29759, "##lett": 20897, "subunit": 24312, "shipping": 7829, "##nce": 5897, "ry": 29431, "initiative": 6349, "racehorse": 25068, "stay": 2994, "external": 6327, "kildare": 24275, "##jord": 24876, "disco": 12532, "repeatedly": 8385, "reunite": 25372, "peacock": 18931, "##uk": 6968, "available": 2800, "51": 4868, "aback": 26575, "michelle": 9393, "plaque": 11952, "regina": 12512, "cerambycidae": 13168, "scarf": 18982, "settling": 9853, "previously": 3130, "favorably": 27597, "packaging": 14793, "kin": 12631, "[unused99]": 104, "##vera": 26061, "implementations": 24977, "deliberately": 9969, "##zuki": 24015, "1787": 16057, "that": 2008, "reprise": 16851, "frankie": 12784, "icc": 16461, "burundi": 28836, "rise": 4125, "awkwardly": 18822, "blogs": 23012, "disadvantage": 20502, "hail": 16889, "\u4e0b": 1743, "##park": 14432, "francoise": 28979, "[unused761]": 766, "assists": 8456, "##\u6c35": 30420, "link": 4957, "huts": 23326, "holm": 28925, "134": 15170, "##vate": 16952, "sundays": 14803, "extant": 12905, "##non": 8540, "accordion": 19060, "nanjing": 21455, "tomorrow": 4826, "buzzing": 20386, "bard": 22759, "[unused787]": 792, "underwater": 11564, "twelve": 4376, "##\u5834": 30332, "##net": 7159, "totaling": 21798, "##vich": 12933, "afraid": 4452, "iberian": 21988, "strawberry": 16876, "sicilian": 22584, "cadence": 23620, "##rdial": 25070, "outfits": 22054, "[unused235]": 240, "driver": 4062, "generosity": 26161, "##ele": 12260, "##rem": 28578, "\u4f50": 1764, "[unused46]": 47, "branched": 21648, "reed": 7305, "empress": 10248, "columbus": 8912, "announced": 2623, "[unused274]": 279, "evans": 6473, "##smo": 25855, "deepest": 17578, "deleted": 17159, "aforementioned": 17289, "carvings": 22838, "contractual": 27948, "80": 3770, "bride": 8959, "vector": 9207, "id": 8909, "redesigned": 17051, "looked": 2246, "##lane": 20644, "taekwondo": 28529, "1a": 20720, "##ography": 9888, "facility": 4322, "##ni": 3490, "showcase": 13398, "assisted": 7197, "ismail": 19214, "##taro": 28160, "erik": 10240, "separates": 18600, "schubert": 24645, "##\u03c1": 29732, "ser": 14262, "boyle": 16694, "mattress": 13342, "zimmerman": 27946, "frowning": 14587, "demonic": 23170, "sleeper": 24372, "kidnap": 22590, "\u110c": 1464, "\u10e3": 1454, "opposes": 29158, "repeat": 9377, "##35": 19481, "denton": 23906, "##ral": 7941, "abundant": 12990, "shaky": 15311, "cantonese": 22241, "mustard": 23187, "elaborate": 9603, "equivalent": 5662, "reducing": 8161, "aristocratic": 19774, "bel": 19337, "##48": 18139, "##ole": 9890, "ulysses": 22784, "impress": 17894, "195": 17317, "exiled": 14146, "staple": 18785, "specializing": 14055, "duval": 23929, "overrun": 24672, "hugh": 6621, "\u3057": 1657, "beside": 3875, "arcadia": 25178, "elliot": 11759, "maximus": 21692, "qualified": 4591, "collects": 17427, "##sei": 20240, "woo": 15854, "411": 27517, "323": 25392, "exchequer": 28889, "abbot": 11428, "##bad": 9024, "jj": 29017, "prescription": 20422, "sofia": 8755, "cycling": 9670, "schumann": 29448, "\u063a": 1289, "then": 2059, "passages": 13768, "nino": 20801, "syrup": 23353, "critique": 16218, "guests": 6368, "boil": 26077, "lists": 7201, "taxpayers": 26457, "=": 1027, "rhea": 24775, "flared": 14937, "current": 2783, "##mers": 16862, "michaels": 17784, "tapping": 15135, "influential": 6383, "55": 4583, "secretariat": 15128, "relax": 9483, "##urgent": 27176, "pharaoh": 22089, "jessie": 10934, "ken": 6358, "##rium": 18802, "populous": 20151, "mentor": 10779, "73": 6421, "auckland": 8666, "lu": 11320, "horn": 7109, "help": 2393, "rule": 3627, "cindy": 15837, "systematically": 23087, "##iss": 14643, "rotten": 11083, "excluded": 12421, "maximize": 25845, "a1": 17350, "term": 2744, "1793": 12387, "ngos": 22165, "##aurus": 17342, "remorse": 23124, "##tte": 4674, "wan": 14071, "finish": 3926, "hailey": 21664, "easily": 4089, "radiating": 23229, "economists": 22171, "packed": 8966, "henan": 27837, "niger": 16842, "abbott": 14455, "1000": 6694, "scratching": 20291, "clemens": 27277, "##iving": 14966, "michele": 15954, "blackwell": 18776, "activists": 10134, "upward": 10745, "www": 7479, "jess": 12245, "sister": 2905, "storm": 4040, "disgusting": 19424, "dinosaurs": 18148, "dock": 8946, "##\u06a9": 29841, "freeing": 22198, "protects": 18227, "[unused491]": 496, "##ess": 7971, "sociologist": 25106, "campuses": 13696, "establish": 5323, "adopt": 11092, "##ai": 4886, "wei": 11417, "fanny": 17813, "##church": 22743, "##eno": 16515, "food": 2833, "mumbled": 11567, "speedy": 26203, "plata": 19534, "representative": 4387, "solved": 13332, "butler": 7055, "\u00f8": 1100, "ik": 20912, "[unused750]": 755, "app": 10439, "toilets": 21674, "scrolls": 23074, "pigeon": 16516, "growls": 27825, "[unused803]": 808, "verification": 22616, "##zine": 21254, "##unas": 23904, "passageway": 27336, "sq": 5490, "rosa": 9508, "audrey": 14166, "airline": 8582, "calendar": 8094, "conditions": 3785, "[unused794]": 799, "1847": 9176, "brush": 8248, "\u0636": 1285, "founders": 8759, "1914": 4554, "mentoring": 29192, "eureka": 21142, "urged": 9720, "manage": 6133, "vittorio": 25914, "make": 2191, "attempt": 3535, "enrique": 15769, "exact": 6635, "townspeople": 27938, "kitty": 14433, "serialized": 27289, "##\u0f60": 29969, "##\u671d": 30400, "470": 21064, "treaty": 5036, "hysteria": 29004, "suns": 19352, "privatization": 23966, "bucket": 13610, "ordered": 3641, "republicans": 10643, "bore": 8501, "store": 3573, "frightened": 10363, "assignments": 14799, "prep": 17463, "##ggles": 24989, "##\u10d3": 29977, "##ues": 15808, "dictated": 23826, "##\u0916": 29852, "hbo": 14633, "spectator": 21027, "\u65b9": 1863, "rebuild": 14591, "governmental": 10605, "##200": 28332, "scorer": 10835, "laughed": 4191, "670": 25535, "coveted": 28821, "ashby": 28729, "entries": 10445, "smoky": 20629, "##antly": 15706, "##iani": 25443, "lobbied": 26421, "ek": 23969, "abused": 16999, "mp": 6131, "1966": 3547, "purpose": 3800, "##lam": 10278, "deaf": 12419, "\u9577": 1967, "unease": 27880, "disposal": 13148, "[unused933]": 938, "roughly": 5560, "##ment": 3672, "tattoo": 11660, "dame": 8214, "threatened": 5561, "cynthia": 15809, "halves": 23672, "bowled": 19831, "rao": 10546, "nouveau": 25272, "addict": 26855, "aisles": 25442, "vicky": 22845, "representatives": 4505, "sunk": 10417, "stops": 6762, "particles": 9309, "nervously": 12531, "[unused228]": 233, "seeming": 16064, "grandfather": 5615, "pleased": 7537, "televised": 13762, "del": 3972, "staff": 3095, "unified": 10562, "voter": 14303, "scoop": 23348, "##\u2082": 8229, "##gus": 12349, "##rdon": 28176, "poznan": 18320, "ze": 27838, "##ship": 9650, "tacoma": 22954, "fuse": 19976, "rammed": 27653, "[unused587]": 592, "4th": 4343, "##mx": 22984, "baffled": 29088, "##41": 23632, "scene": 3496, "theology": 8006, "governor": 3099, "equator": 26640, "spray": 12509, "gastropod": 10953, "miscellaneous": 25408, "reluctantly": 11206, "archeological": 23005, "tuition": 15413, "##sey": 7952, "##ili": 18622, "percival": 27832, "fins": 18564, "pmid": 20117, "##writing": 18560, "provoke": 27895, "garde": 14535, "eternal": 10721, "##ban": 8193, "witch": 6965, "creating": 4526, "adjective": 24931, "##gaon": 27073, "lauderdale": 23520, "##bos": 15853, "##odies": 27391, "##oot": 17206, "first": 2034, "##una": 9521, "clashed": 22600, "mainstream": 7731, "locals": 10575, "1672": 27253, "[unused773]": 778, "sm": 15488, "naming": 10324, "##chu": 20760, "liberty": 7044, "##ducted": 29510, "portrait": 6533, "##chua": 26200, "\u85e4": 1944, "duchess": 11017, "boutique": 24611, "armagh": 24678, "##ulsive": 23004, "yin": 18208, "##\u79cb": 30455, "pontiac": 24538, "[unused837]": 842, "tap": 11112, "\u0f63": 1435, "rq": 28134, "teeth": 4091, "resulted": 4504, "clothed": 24963, "punishment": 7750, "atrium": 26204, "horatio": 27752, "bronx": 14487, "destroying": 9846, "attacks": 4491, "someday": 13834, "1832": 10212, "dd": 20315, "##\u064a": 14498, "phone": 3042, "indicating": 8131, "compiled": 9227, "}": 1065, "##kin": 4939, "streak": 9039, "interviewed": 10263, "chiang": 17684, "werewolf": 12797, "southampton": 11833, "donated": 6955, "hugged": 10308, "mathew": 25436, "italian": 3059, "arun": 28217, "empowered": 26480, "##54": 27009, "##ogo": 22844, "presumed": 14609, "1850s": 16488, "candace": 22905, "weir": 16658, "##ssar": 25556, "##ead": 13775, "swamp": 11963, "neural": 15756, "stalin": 13125, "##\u2286": 30138, "cables": 15196, "contempt": 17152, "crashed": 8007, "swan": 10677, "alfredo": 19423, "[unused923]": 928, "[unused957]": 962, "\u03c1": 1171, "unwilling": 15175, "##meo": 26247, "cream": 6949, "enabling": 12067, "galleries": 11726, "executions": 22679, "\u0985": 1347, "[unused476]": 481, "ronin": 29249, "bautista": 27845, "[unused465]": 470, "tickets": 9735, "lucas": 6326, "sultan": 7544, "requesting": 17942, "advising": 23875, "weights": 15871, "cavern": 16679, "darwin": 11534, "##\u4eee": 30287, "majority": 3484, "interviewing": 27805, "nbc": 6788, "##bourne": 11634, "\u30c6": 1713, "splash": 17624, "coefficients": 21374, "diabetes": 14671, "##lge": 28875, "flop": 28583, "commissions": 13239, "guido": 20239, "160": 8148, "##strom": 15687, "poles": 10567, "tna": 20108, "plateau": 9814, "344": 29386, "commemorated": 19131, "neolithic": 19061, "kruger": 27823, "bruce": 5503, "krishna": 10871, "advisors": 18934, "##f": 2546, "aus": 17151, "whitehall": 28361, "calculate": 18422, "typical": 5171, "busch": 15840, "1877": 7557, "thermal": 9829, "##oted": 27428, "problematic": 18636, "demographics": 28321, "eel": 24315, "rail": 4334, "goldsmith": 22389, "usd": 13751, "improvisation": 24584, "##polis": 17699, "apprentice": 13357, "1560": 29185, "organ": 5812, "##uj": 23049, "##laze": 24472, "below": 2917, "brief": 4766, "##iferous": 23930, "1954": 4051, "\ufb01": 1984, "##zing": 6774, "[unused908]": 913, "acids": 12737, "nigeria": 7387, "marty": 12578, "dice": 18740, "remembering": 10397, "inspector": 7742, "##tein": 9589, "subsidiaries": 20178, "bewildered": 24683, "\u0dba": 1404, "counterpart": 13637, "\u026b": 1120, "##isha": 24032, "##jm": 24703, "compartment": 15273, "[unused299]": 304, "halfway": 8576, "memoirs": 13251, "sw": 25430, "ramps": 24943, "rigid": 11841, "pillars": 13766, "##horpe": 22044, "##ease": 19500, "attended": 3230, "swung": 7671, "derivative": 13819, "python": 18750, "sidekick": 29240, "fourth": 2959, "##trick": 22881, "supper": 15264, "humanities": 11406, "intruder": 22841, "##nio": 27678, "[unused87]": 88, "robotics": 21331, "evil": 4763, "\u0443": 1198, "##\u0565": 29770, "chatham": 16727, "null": 19701, "vile": 25047, "severed": 16574, "[unused430]": 435, "##cts": 16649, "picked": 3856, "dust": 6497, "carpathian": 26349, "prohibited": 10890, "depicts": 11230, "sited": 28603, "##ool": 13669, "##\u9fb8": 30509, "arguments": 9918, "palazzo": 18482, "volunteers": 7314, "##itaire": 29422, "\u1d30": 1492, "presidency": 8798, "laden": 14887, "##bit": 16313, "medina": 15761, "pedestal": 24496, "eyed": 7168, "overthrow": 16857, "parks": 6328, "weak": 5410, "##oi": 10448, "##lley": 25105, "##mes": 7834, "navigate": 22149, "207": 19843, "##sius": 24721, "\u2071": 1537, "lavish": 22689, "seating": 10747, "vault": 11632, "##ably": 8231, "regular": 3180, "personalities": 12857, "releasing": 8287, "##nor": 12131, "thumping": 25996, "##usia": 24118, "resign": 12897, "[unused97]": 98, "##rous": 13288, "shaping": 20300, ")": 1007, "built": 2328, "particular": 3327, "dietrich": 22567, "##thest": 20515, "dictionary": 9206, "flattened": 16379, "##strel": 26877, "differ": 11234, "##eras": 24140, "[unused727]": 732, "clown": 15912, "claimed": 3555, "colts": 14390, "ashley": 9321, "deities": 17091, "eastenders": 28936, "stroked": 11699, "homosexuality": 15949, "curving": 21439, "injured": 5229, "innovations": 15463, "en": 4372, "ubiquitous": 28498, "lucy": 7004, "inventory": 12612, "splitting": 14541, "heavier": 11907, "intersection": 6840, "deputy": 4112, "breakfast": 6350, "hazardous": 17760, "bucharest": 14261, "nee": 7663, "##etti": 18319, "ducked": 13781, "shady": 22824, "daze": 28918, "##holz": 28094, "axes": 19589, "todd": 6927, "reveal": 7487, "unlawful": 22300, "kilograms": 18857, "hound": 19598, "##kney": 26993, "anand": 18887, "\uff0c": 1989, "paths": 10425, "##anian": 26032, "zoning": 27462, "mannheim": 25116, "[unused572]": 577, "elves": 16980, "##ced": 11788, "##cake": 17955, "two": 2048, "stuffed": 11812, "109": 11518, "##ington": 7853, "wrist": 7223, "appointed": 2805, "shall": 4618, "tyres": 24656, "scandals": 29609, "accurate": 8321, "mcconnell": 28514, "homemade": 25628, "1767": 21502, "mathematical": 8045, "insulted": 23637, "transforming": 17903, "hampton": 11615, "hugs": 24459, "##op": 7361, "chili": 20238, "java": 9262, "jacqueline": 17551, "lowry": 27281, "deployment": 10813, "gills": 29468, "##boarding": 21172, "reactivated": 28577, "\u0440": 1195, "gaze": 3657, "##iga": 13340, "460": 17267, "sci": 16596, "pixels": 27725, "recycled": 22207, "biology": 7366, "corvette": 22687, "ellie": 10707, "license": 6105, "banco": 28678, "liza": 20503, "luggage": 17434, "standardization": 28648, "isbn": 3175, "fashion": 4827, "[unused735]": 740, "##sworth": 12255, "natal": 17489, "famously": 18172, "##ecin": 28191, "joan": 7437, "##ntial": 19909, "principally": 16552, "xp": 26726, "##ilia": 27861, "problems": 3471, "approximately": 3155, "shoot": 5607, "##orno": 26295, "##iste": 27870, "lace": 12922, "i": 1045, "laurie": 16450, "sourced": 23184, "submarines": 12622, "peters": 12420, "theodor": 21448, "screaming": 7491, "\u3084": 1682, "cane": 11942, "stage": 2754, "disliked": 18966, "parish": 3583, "sect": 17831, "[unused137]": 142, "mi": 2771, "clerical": 23106, "situated": 4350, "scarlett": 20862, "transparency": 16987, "embarrassing": 16436, "assumption": 11213, "##\u06cc": 24830, "progressively": 20519, "elevations": 18166, "##\u0b95": 29918, "archduke": 27463, "littered": 24777, "believing": 8929, "im": 10047, "[unused867]": 872, "inherited": 7900, "ensign": 19890, "protests": 8090, "[unused348]": 353, "levin": 20206, "entrusted": 18011, "##lda": 15150, "andersen": 18308, "dazzling": 28190, "shown": 3491, "\u062a": 1273, "fourier": 26899, "expressed": 5228, "touch": 3543, "soul": 3969, "\u30b9": 1707, "1604": 28754, "norton": 10770, "##yuki": 19663, "expeditionary": 15372, "soccer": 4715, "##cratic": 17510, "dresden": 12983, "gaming": 10355, "graham": 5846, "nation": 3842, "inch": 4960, "well": 2092, "##rix": 17682, "cheated": 22673, "2018": 2760, "decline": 6689, "mutant": 15527, "650": 13757, "jing": 21536, "##\u09ad": 29905, "[unused389]": 394, "darcy": 17685, "##\u044a": 29755, "sit": 4133, "retired": 3394, "costing": 22173, "mood": 6888, "fragmented": 26872, "hudson": 6842, "##tain": 18249, "##hir": 11961, "copying": 24731, "scrapped": 14553, "pretending": 12097, "1820s": 28504, "trillion": 23458, "[unused983]": 988, "##stein": 8602, "##krishna": 23017, "saturdays": 18860, "grading": 26886, "flutter": 23638, "1923": 4927, "1815": 10679, "nhs": 17237, "regatta": 26848, "determined": 4340, "repository": 22409, "richard": 2957, "pertaining": 20246, "##otho": 29288, "susie": 23917, "##tea": 27058, "##arat": 25879, "commodities": 21955, "havilland": 23994, "nights": 6385, "flows": 6223, "archie": 13255, "[unused948]": 953, "##using": 18161, "turret": 14493, "finally": 2633, "recommendations": 11433, "pulsed": 24107, "##resses": 25932, "##ania": 13241, "405": 23988, "dilapidated": 29283, "similarities": 12319, "klaus": 16536, "##oured": 16777, "occupation": 6139, "##ms": 5244, "indie": 10271, "##gan": 5289, "##dara": 25329, "##ounded": 26240, "battleships": 21327, "dwarfs": 28984, "classical": 4556, "mca": 22432, "\u6b4c": 1886, "belongs": 7460, "cupping": 25076, "##lusion": 24117, "[unused431]": 436, "suspects": 13172, "\u0447": 1202, "mandir": 22700, "[unused523]": 528, "wrapped": 5058, "mutants": 23892, "1932": 4673, "wine": 4511, "290": 17222, "boilers": 20412, "tunnels": 10633, "frs": 25188, "africans": 18076, "elise": 14251, "regrets": 23161, "##gut": 27920, "mortgage": 14344, "chopped": 24881, "flicker": 17909, "##orf": 16347, "##lip": 15000, "##\u4f8d": 30291, "##mins": 21266, "akbar": 20730, "steel": 3886, "cristina": 22246, "whistle": 13300, "fiancee": 19455, "chances": 9592, "enclave": 25867, "jesse": 7627, "nadia": 14942, "arrangement": 6512, "##orted": 15613, "244": 24194, "accounts": 6115, "marriages": 12743, "perceive": 23084, "hopkins": 10239, "require": 5478, "tracing": 16907, "dozens": 9877, "##sley": 8002, "marina": 9985, "forces": 2749, "caring": 11922, "street": 2395, "comments": 7928, "##nism": 28113, "capable": 5214, "##atin": 20363, "shiny": 12538, "slain": 19668, "##horse": 23024, "consistency": 18700, "exploit": 18077, "1953": 4052, "\u9762": 1976, "\u028a": 1132, "##\u0563": 29768, "spawning": 27957, "##heard": 26362, "speculation": 12143, "ushered": 23815, "ratio": 6463, "goose": 13020, "carrying": 4755, "perpetrators": 27675, "administrative": 3831, "cable": 5830, "ned": 12311, "plot": 5436, "quake": 27785, "escorting": 23831, "##ested": 17944, "macro": 26632, "##\u6211": 30381, "##sd": 16150, "mattered": 13836, "reminiscent": 14563, "battled": 19787, "canonical": 18562, "thai": 7273, "brest": 22451, "neat": 15708, "##aud": 19513, "ar": 12098, "fugitive": 21329, "dreams": 5544, "considered": 2641, "##uma": 12248, "[unused319]": 324, "registrar": 24580, "pirate": 11304, "\u03bb": 1165, "propellers": 23405, "tenderly": 26596, "##neuve": 28104, "##\u30fb": 30264, "[unused846]": 851, "reminder": 14764, "##yl": 8516, "raven": 10000, "xiii": 15031, "systematic": 11778, "undertake": 16617, "##\u1d2e": 30027, "[unused627]": 632, "304": 23859, "validation": 27354, "##\u539f": 30313, "logical": 11177, "assemble": 21365, "wiltshire": 17045, "grouping": 19765, "omar": 13192, "reprinted": 13603, "fungi": 15289, "mcmahon": 17741, "ka": 10556, "fern": 20863, "keyboards": 6269, "down": 2091, "awe": 15180, "objective": 7863, "amanda": 8282, "compassionate": 29353, "fischer": 13042, "patty": 17798, "luisa": 25412, "sung": 7042, "establishes": 21009, "aging": 12520, "uruguayan": 23464, "odin": 26195, "antennas": 26315, "\u043b": 1190, "fortification": 23050, "adult": 4639, "looting": 29367, "\u00b0": 1080, "hiram": 27410, "termed": 12061, "whispers": 11054, "##awa": 10830, "font": 15489, "searching": 6575, "luftwaffe": 17740, "squad": 4686, "versus": 6431, "getting": 2893, "fielded": 20988, "bloom": 13426, "yesterday": 7483, "[unused512]": 517, "masjid": 27779, "\u062f": 1278, "adolph": 28564, "barre": 23189, "desire": 4792, "[unused960]": 965, "announcements": 25674, "1813": 12169, "approximate": 15796, "professions": 22797, "mapping": 12375, "[unused55]": 56, "\u0642": 1292, "playfully": 22608, "##miya": 29312, "nationwide": 9053, "##rgeon": 28242, "brian": 4422, "\u4f1a": 1763, "##ila": 11733, "tackles": 10455, "costly": 17047, "concentrating": 16966, "bruins": 18159, "lim": 18525, "paperback": 13611, "strings": 7817, "clustered": 25221, "accordingly": 11914, "[unused973]": 978, "sutherland": 14274, "attained": 12754, "paterson": 19162, "best": 2190, "taxon": 28521, "doubted": 12979, "avengers": 14936, "verb": 12034, "\u0e1e": 1414, "embodied": 25405, "\u5289": 1777, "##imate": 21499, "mall": 6670, "youths": 19634, "##phy": 21281, "##ror": 29165, "arte": 16185, "cb": 17324, "[unused254]": 259, "hope": 3246, "syndicate": 16229, "austen": 24177, "explicit": 13216, "\u0baf": 1390, "1737": 26738, "mahogany": 23867, "drifting": 15013, "deposited": 14140, "##ete": 12870, "carriers": 11363, "laboratories": 12030, "trumpeter": 28220, "[unused230]": 235, "##\u0993": 29888, "seaside": 20276, "optimal": 15502, "scarlet": 11862, "##g": 2290, "\u8449": 1943, "bromwich": 27888, "wildly": 13544, "##\u05d0": 29788, "shrug": 13409, "ate": 8823, "##ductive": 26638, "##tling": 15073, "##lings": 11227, "crazy": 4689, "italiana": 28059, "angered": 18748, "sant": 15548, "##rf": 12881, "transcription": 14193, "\u305b": 1659, "stimulated": 25194, "##uded": 13936, "##tist": 16774, "commemorate": 13415, "##rine": 11467, "##kt": 25509, "##verse": 16070, "[unused89]": 90, "318": 27003, "##\u0632": 29823, "##icient": 20132, "owner": 3954, "gaius": 19564, "cigarettes": 15001, "dawned": 27702, "##hya": 17915, "##oue": 27872, "eyelashes": 25150, "##sed": 6924, "##iano": 15668, "stages": 5711, "talked": 5720, "started": 2318, "triassic": 29529, "forum": 7057, "otter": 22279, "striped": 17983, "\u1174": 1482, "basilica": 13546, "romani": 23982, "hooked": 13322, "erected": 7019, "[unused507]": 512, "##ivate": 21466, "intentions": 11174, "heads": 4641, "grossed": 17500, "offices": 4822, "##\u00bb": 29663, "schwarz": 29058, "lyman": 27587, "##screen": 18182, "prohibit": 23469, "archbishop": 6507, "##ains": 28247, "concerts": 6759, "fierce": 9205, "marrying": 13516, "[unused216]": 221, "marseille": 16766, "##ivist": 21997, "##ton": 2669, "50": 2753, "##vu": 19722, "tried": 2699, "iowa": 5947, "\u1d43": 1496, "joo": 28576, "modifying": 29226, "mclaren": 18590, "[unused855]": 860, "magnate": 27470, "luckily": 15798, "kilkenny": 17131, "fruit": 5909, "duets": 29410, "advancement": 12607, "##sper": 17668, "\\": 1032, "52": 4720, "fist": 7345, "fame": 4476, "awakening": 16936, "staggering": 26233, "xbox": 12202, "vacancy": 15619, "##pped": 11469, "##veda": 28614, "restraints": 28054, "##cco": 21408, "fulfilled": 16829, "mocked": 24195, "##erly": 12561, "locked": 5299, "barrow": 15355, "edward": 3487, "carp": 29267, "too": 2205, "calves": 28023, "bowed": 11489, "##hearted": 27693, "transitional": 17459, "##tip": 25101, "chewing": 17492, "complementary": 21053, "wipe": 13387, "beverages": 21705, "##bill": 24457, "consortium": 12360, "czechoslovakia": 12833, "##\u5b89": 30346, "##\u201c": 30058, "penguins": 18134, "##zar": 9057, "biographical": 16747, "##\u0578": 29779, "ussr": 10331, "tolkien": 23602, "##\u0440": 16856, "gentlemen": 11218, "\u8ecd": 1955, "[unused762]": 767, "babylon": 17690, "##urian": 29091, "craftsmen": 25736, "perform": 4685, "aura": 15240, "masonic": 21152, "openings": 16556, "[unused548]": 553, "##cars": 20745, "khz": 17737, "royals": 15426, "[unused485]": 490, "##wad": 26016, "desirable": 16166, "seizing": 24681, "patna": 29565, "merchandise": 16359, "freddy": 19343, "hollywood": 5365, "uncles": 27328, "deliver": 8116, "##\u83ef": 30468, "smart": 6047, "potential": 4022, "##ute": 10421, "[unused963]": 968, "##ota": 17287, "nocturnal": 23789, "ahead": 3805, "displeasure": 28606, "##rm": 10867, "##nator": 27413, "1b": 26314, "budget": 5166, "francesca": 15409, "charters": 23010, "321": 24030, "\u0127": 1103, "\u3051": 1654, "momentum": 11071, "nsw": 11524, "pena": 19409, "747": 25374, "deadline": 15117, "discrimination": 9147, "taxonomic": 27691, "##relli": 22948, "evaluated": 16330, "pregnancy": 10032, "##ies": 3111, "have": 2031, "hockey": 3873, "scale": 4094, "mathias": 20494, "kendall": 14509, "player": 2447, "admiralty": 14179, "##\u3068": 30192, "##rber": 20473, "froze": 10619, "ter": 28774, "mons": 29408, "theatres": 13166, "prevailed": 19914, "judgment": 8689, "gardening": 21529, "habsburg": 17486, "mughal": 17877, "any": 2151, "##fus": 25608, "knee": 6181, "##gles": 17125, "spend": 5247, "[unused873]": 878, "spielberg": 28740, "presenter": 10044, "wcw": 24215, "declaration": 8170, "implies": 12748, "joseph": 3312, "##enbach": 21409, "bae": 25818, "##bbed": 15499, "ff": 21461, "unpopular": 19657, "births": 18250, "##\u03ba": 29726, "##\u0915": 29851, "madagascar": 11934, "t": 1056, "sediment": 19671, "abu": 8273, "plunge": 25912, "nesting": 21016, "parkinson": 20310, "debates": 14379, "pry": 29198, "civilized": 25825, "archipelago": 13888, "authored": 8786, "bordered": 11356, "pity": 12063, "##tangle": 23395, "progresses": 22901, "##lor": 10626, "##\u209c": 30099, "##\u4e0b": 30269, "trend": 9874, "##\u06c1": 29845, "##going": 26966, "mormon": 15111, "##hony": 27629, "likened": 28834, "##bbing": 23200, "\u09b6": 1374, "orbital": 13943, "##\u062c": 29819, "##oit": 28100, "spartan": 20670, "##\u76f8": 30445, "##pi": 8197, "interested": 4699, "damien": 12587, "thicker": 19638, "nonetheless": 9690, "[unused285]": 290, "frank": 3581, "15": 2321, "commentaries": 21241, "before": 2077, "swiss": 5364, "##ester": 20367, "sighing": 19381, "sneaking": 20727, "honoured": 15546, "##elial": 24587, "##rson": 17753, "bertha": 25079, "findings": 9556, "dirk": 17594, "[unused148]": 153, "viewed": 7021, "kyrgyzstan": 23209, "mach": 24532, "render": 17552, "blackened": 25788, "frame": 4853, "##pour": 27757, "bacteria": 10327, "care": 2729, "##\u702c": 30431, "ionic": 24774, "maxi": 21510, "teenager": 10563, "##frame": 15643, "alberto": 12007, "##nov": 16693, "concentrations": 14061, "ramirez": 15206, "##idal": 16975, "b1": 29491, "patents": 13979, "rasped": 28459, "[unused0]": 1, "exceeded": 14872, "\u53e4": 1789, "##biotic": 26591, "expectation": 17626, "concourse": 28571, "activism": 16841, "##\u0e15": 29947, "unbroken": 29505, "fair": 4189, "[unused269]": 274, "##uw": 25974, "##morphic": 18078, "aspect": 7814, "flawless": 27503, "hunter": 4477, "\u062e": 1277, "ares": 23631, "artemis": 19063, "asylum": 11386, "tessa": 13167, "leaks": 29324, "cozy": 26931, "\u83ef": 1942, "##dication": 25027, "incense": 28647, "messing": 22308, "implementation": 7375, "pilots": 8221, "tooth": 11868, "[unused492]": 497, "attendees": 19973, "pilasters": 26752, "projections": 21796, "##yk": 15922, "microsoft": 7513, "##isance": 28138, "insistent": 29204, "ordination": 18129, "condition": 4650, "##ude": 12672, "saxe": 24937, "sailing": 8354, "1899": 6166, "transmit": 19818, "##ions": 8496, "fascism": 23779, "bite": 6805, "clinging": 17892, "arenas": 26434, "growled": 8881, "recited": 24843, "meadow": 13244, "painted": 4993, "queensland": 5322, "tides": 22487, "wondered": 4999, "##ua": 6692, "stores": 5324, "liberties": 18271, "##tique": 28437, "released": 2207, "##born": 10280, "graduation": 7665, "carries": 7883, "streaked": 21276, "kitchener": 27154, "ernest": 8471, "jeanne": 14537, "pretend": 9811, "promotes": 14067, "moved": 2333, "minerals": 13246, "laying": 10201, "190": 11827, "posture": 16819, "attitudes": 13818, "canvas": 10683, "aftermath": 10530, "anya": 21728, "uppsala": 25720, "sweating": 18972, "maru": 26280, "homme": 26574, "1778": 16331, "jerk": 12181, "##jack": 17364, "concessions": 20638, "edwards": 7380, "spirit": 4382, "bait": 17395, "bequeathed": 27180, "assessing": 20077, "clips": 15281, "reporters": 12060, "avatar": 22128, "strikers": 26049, "\u05e8": 1265, "continue": 3613, "clutching": 14197, "salvador": 10582, "1856": 8708, "personality": 6180, "humanist": 24464, "##iff": 13355, "formulation": 20219, "##\u30e2": 30253, "chicken": 7975, "rhetoric": 17871, "##neer": 19755, "referee": 5330, "simi": 28684, "gets": 4152, "handing": 13041, "##\u05df": 29802, "winds": 7266, "loosen": 29476, "colonization": 18962, "##hone": 27406, "incapable": 19907, "feast": 9831, "northern": 2642, "engagements": 20583, "export": 9167, "cecil": 11978, "liberia": 18039, "espn": 10978, "\u00b5": 1085, "dough": 23126, "##\u30bf": 30235, "colleagues": 8628, "##\u110e": 30001, "liga": 8018, "prominence": 12144, "found": 2179, "##asse": 27241, "##ahu": 21463, "epilogue": 24297, "leads": 5260, "constraint": 27142, "bases": 7888, "##ceptive": 28687, "\u7acb": 1931, "precedence": 23359, "bounds": 19202, "surveillance": 9867, "pe": 21877, "1926": 4881, "egg": 8288, "recurring": 10694, "##\u0627": 25573, "superliga": 25922, "spite": 8741, "computers": 7588, "treating": 12318, "element": 5783, "signatures": 16442, "honolulu": 16598, "##missible": 26770, "reflecting": 10842, "sears": 18493, "\u5408": 1792, "reggae": 15662, "##\u3001": 30161, "katy": 17870, "375": 18034, "##ground": 16365, "nakamura": 23981, "cancel": 17542, "butter": 12136, "promoter": 15543, "hideous": 22293, "chorale": 26561, "alps": 13698, "\u00a3": 1069, "barrio": 25676, "len": 18798, "affecting": 12473, "##tors": 6591, "retrieved": 5140, "##ingdon": 29138, "sorts": 11901, "253": 23254, "anniversary": 5315, "encourage": 8627, "##cious": 18436, "availability": 11343, "reconciled": 28348, "28": 2654, "\u116f": 1479, "closed": 2701, "hostile": 10420, "abdullah": 14093, "airmen": 29437, "owes": 24381, "bilbao": 25427, "##\u0921": 29857, "perfect": 3819, "flyer": 23821, "iaaf": 21259, "spicy": 25482, "hire": 10887, "##\u5fb7": 30374, "ticked": 26019, "unconscious": 9787, "##rgy": 22637, "butterfly": 9112, "\u653f": 1860, "studio": 2996, "mccann": 28641, "radio": 2557, "chairman": 3472, "quieter": 27486, "arnold": 7779, "useful": 6179, "trial": 3979, "liv": 22135, "hawthorne": 23440, "immensely": 24256, "\u06a9": 1304, "signalling": 21919, "bachelor": 5065, "##dler": 21222, "cn": 27166, "traits": 12955, "##itan": 25451, "faces": 5344, "sprawled": 21212, "accolades": 27447, "enforcing": 27455, "recovering": 13400, "notices": 14444, "protect": 4047, "allegheny": 21192, "[PAD]": 0, "yet": 2664, "delicate": 10059, "570": 24902, "revisited": 24354, "evidently": 15329, "fake": 8275, "feared": 8615, "maiden": 10494, "listener": 19373, "##pher": 27921, "freshly": 20229, "growth": 3930, "##main": 24238, "pounds": 7038, "going": 2183, "distributing": 20083, "trout": 13452, "praised": 5868, "08": 5511, "studies": 2913, "gazing": 16448, "wits": 25433, "leon": 6506, "aubrey": 18961, "[unused452]": 457, "##wald": 11191, "deposit": 12816, "##keeping": 18321, "cloud": 6112, "rollins": 23502, "##\u09c0": 29916, "##games": 26393, "onwards": 9921, "wife": 2564, "wed": 21981, "rai": 15547, "walton": 14290, "[unused412]": 417, "##xing": 19612, "parts": 3033, "basics": 24078, "[unused91]": 92, "##ery": 7301, "pakistan": 4501, "trevor": 8672, "##yed": 20821, "[UNK]": 100, "revoked": 22837, "correlation": 16902, "sheriff": 6458, "1821": 11723, "\u03bd": 1167, "stakes": 7533, "discoveries": 15636, "beheaded": 28923, "combine": 11506, "##down": 7698, "principal": 4054, "raleigh": 15842, "##fare": 17883, "highs": 26836, "##loading": 18570, "##bles": 13510, "shoulder": 3244, "##\u0e17": 29948, "highlands": 11784, "##scia": 27210, "ached": 15043, "porter": 8716, "fallen": 5357, "translucent": 22897, "archives": 8264, "##\u5dde": 30362, "##tani": 17681, "##liga": 14715, "reacting": 24868, "barnard": 22266, "##ivo": 20984, "##trip": 24901, "packard": 24100, "##\u05e5": 29808, "[unused49]": 50, "[unused462]": 467, "allowed": 3039, "hemisphere": 14130, "expand": 7818, "##lle": 6216, "##lessly": 10895, "edouard": 21627, "prom": 20877, "perceived": 8690, "##planes": 26634, "kashmir": 13329, "wwf": 16779, "ultimatum": 29227, "##heater": 27847, "rations": 29559, "freed": 10650, "##logies": 21615, "nathan": 7150, "oversaw": 14105, "acts": 4490, "pistol": 8779, "ulrich": 19619, "hannah": 8410, "tremor": 27734, "##uke": 15851, "elaine": 15263, "hot": 2980, "construction": 2810, "squeezed": 7757, "vi": 6819, "courier": 18092, "surfaces": 9972, "unlock": 19829, "alzheimer": 21901, "bordering": 18299, "1630": 24994, "##mini": 25300, "[unused649]": 654, "implementing": 14972, "diagnosed": 11441, "slug": 23667, "chance": 3382, "\u1106": 1459, "screwing": 29082, "\u2076": 1540, "1605": 28202, "macedonia": 11492, "mentions": 9704, "heavily": 4600, "velocity": 10146, "harry": 4302, "tributary": 8914, "ego": 13059, "naples": 10553, "fcc": 14420, "##\u6587": 30387, "##hos": 15006, "stemming": 29217, "living": 2542, "##vd": 16872, "evaluation": 9312, "deposition": 19806, "awake": 8300, "phil": 6316, "##hmi": 26837, "1871": 7428, "if": 2065, "seldom": 15839, "shang": 29382, "bestseller": 24304, "historic": 3181, "prefers": 19233, "assembled": 9240, "sinking": 10186, "##xley": 20959, "herbal": 27849, "interruption": 24191, "cement": 11297, "frown": 11330, "[unused500]": 505, "numbering": 15200, "\u22c5": 1614, "mclean": 17602, "\u79c0": 1928, "ryu": 19367, "humboldt": 19249, "randy": 9744, "levine": 17780, "distress": 12893, "recall": 9131, "leases": 29597, "numerical": 15973, "fearing": 14892, "wetlands": 16630, "picking": 8130, "\u0452": 1211, "##oise": 23565, "nad": 23233, "airship": 27636, "##vale": 17479, "voiced": 6126, "belonged": 6272, "##yra": 19563, "socks": 14829, "miserable": 13736, "shielded": 25474, "exhibiting": 22922, "oaxaca": 26923, "##ddle": 20338, "reduces": 13416, "somerville": 27209, "##jun": 19792, "beyonce": 20773, "layout": 9621, "complications": 12763, "porsche": 16099, "exported": 15612, "peasant": 14539, "teachings": 12209, "albania": 10407, "valerie": 14264, "maria": 3814, "[unused69]": 70, "alley": 8975, "endorsement": 20380, "intriguing": 23824, "[unused394]": 399, "latch": 25635, "bangs": 28490, "xinjiang": 25904, "hamish": 28859, "preserving": 15224, "drift": 11852, "princeton": 9173, "proprietor": 21584, "joint": 4101, "spanned": 18212, "rousseau": 26868, "##zumi": 28114, "cough": 19340, "matthew": 5487, "logistics": 12708, "impacts": 14670, "##aer": 27867, "stephenson": 19789, "missionaries": 11743, "singer": 3220, "##itzer": 19253, "\u1169": 1475, "rejection": 13893, "lia": 22393, "45": 3429, "retailer": 20196, "spotting": 27963, "gil": 13097, "##kken": 24192, "kemp": 20441, "##\u1d63": 30043, "\u1d65": 1510, "filmmaker": 12127, "terms": 3408, "xavier": 10062, "greenish": 23753, "lavender": 20920, "armchair": 29372, "functioned": 20903, "##ructured": 26134, "##\u0f0b": 29960, "frozen": 7708, "gloria": 10778, "synthesized": 23572, "vocal": 5554, "cameroon": 13841, "short": 2460, "\u3088": 1684, "shelly": 28360, "principle": 6958, "expense": 10961, "affected": 5360, "single": 2309, "##tment": 21181, "##ych": 17994, "[unused145]": 150, "##mada": 23574, "applicable": 12711, "##\u207b": 30079, "sheppard": 24976, "##\u266f": 30154, "habit": 10427, "proud": 7098, "stubble": 26816, "\u2228": 1603, "penang": 21812, "axel": 18586, "motioned": 13054, "spent": 2985, "strung": 23509, "musica": 21137, "boone": 15033, "sal": 16183, "narrowed": 8061, "##py": 7685, "watching": 3666, "parochial": 28773, "badger": 24186, "##\u898b": 30474, "hermit": 24308, "rancho": 18123, "selected": 3479, "trough": 23389, "perspectives": 15251, "##er": 2121, "serious": 3809, "axial": 26819, "immortality": 20107, "##\u548c": 30322, "##camp": 26468, "becky": 14407, "ko": 12849, "turnpike": 17116, "extremes": 28800, "cesare": 26708, "driveway": 11202, "kilometer": 20595, "##jong": 21958, "summer": 2621, "inn": 7601, "gazette": 11391, "certificate": 8196, "##ider": 18688, "levels": 3798, "predatory": 21659, "##\u5c1a": 30356, "da": 4830, "invited": 4778, "##oum": 24778, "julius": 10396, "courthouse": 10816, "mcdonnell": 23149, "hotel": 3309, "policing": 21107, "resistance": 5012, "bat": 7151, "hui": 17504, "##yi": 10139, "neck": 3300, "feeder": 21429, "transporting": 18276, "1802": 13515, "[unused222]": 227, "##mmy": 18879, "referred": 3615, "crewe": 22188, "[unused966]": 971, "buckingham": 17836, "casa": 14124, "##\u05ea": 29813, "owen": 7291, "mei": 19734, "esther": 14631, "paternal": 15112, "safeguard": 28805, "##ng": 3070, "empowerment": 23011, "tips": 10247, "##scan": 29378, "##pire": 20781, "pronouns": 26028, "footprint": 24319, "treatments": 13441, "verse": 7893, "##\u0459": 29762, "dialogues": 22580, "##tya": 21426, "telephone": 7026, "intimidation": 28973, "endowed": 19038, "hearings": 19153, "##iec": 23783, "https": 16770, "##can": 9336, "germany": 2762, "\u056c": 1226, "zev": 27909, "alonso": 17649, "##cene": 17968, "entity": 9178, "striker": 11854, "ramsey": 15092, "##\u0930": 29869, "benson": 11999, "entrance": 4211, "mcbride": 18958, "disagreed": 18335, "heroes": 7348, "shotgun": 13305, "horseshoe": 23449, "commodity": 19502, "[unused660]": 665, "suriname": 25050, "spire": 19823, "##lm": 13728, "unharmed": 28150, "##grad": 16307, "dove": 10855, "overall": 3452, "nutrition": 14266, "gi": 21025, "##anna": 25789, "osborn": 26999, "traded": 7007, "teased": 13074, "travelled": 7837, "biblical": 10213, "brahms": 28419, "##llus": 20159, "\u110b": 1463, "joanne": 23459, "afterwards": 5728, "auf": 21200, "greenville": 20967, "permits": 14245, "##escu": 19434, "provisional": 10864, "command": 3094, "##ryl": 23320, "cougars": 26317, "192": 17613, "[unused396]": 401, "hal": 11085, "use": 2224, "ernie": 14637, "##\u3044": 30173, "##wife": 19993, "longevity": 26906, "meditation": 13804, "268": 25143, "derelict": 28839, "accumulated": 14830, "extremely": 5186, "milos": 26038, "##igraphy": 23132, "nelly": 29498, "kings": 5465, "\u00b4": 1084, "##\u0bc7": 29934, "##\u90e8": 30486, "##mum": 27147, "renowned": 8228, "turnbull": 26439, "[unused964]": 969, "starring": 4626, "retiring": 9150, "##uring": 12228, "\u2663": 1624, "spilled": 13439, "relativity": 20805, "academies": 20994, "[unused626]": 631, "projection": 13996, "##ulsion": 23316, "engineers": 6145, "##\u9580": 30494, "tube": 7270, "amended": 13266, "chestnut": 15655, "truman": 15237, "[unused290]": 295, "[unused747]": 752, "subscribers": 17073, "pious": 25020, "stampede": 29375, "opportunities": 6695, "ponytail": 18865, "test": 3231, "\u09af": 1371, "##egan": 20307, "burt": 18611, "successes": 14152, "within": 2306, "##ries": 5134, "achievement": 6344, "##thes": 24138, "striking": 8478, "##ials": 26340, "successfully": 5147, "groups": 2967, "prohibition": 13574, "##fort": 13028, "symposium": 17899, "stamp": 11359, "creaked": 28068, "candy": 9485, "grapes": 16575, "parked": 9083, "fewer": 8491, "viper": 17947, "cylinder": 7956, "mines": 7134, "newly": 4397, "providers": 11670, "composing": 16572, "delicious": 12090, "rico": 7043, "\u03b2": 1156, "bathurst": 21897, "##ega": 29107, "round": 2461, "debut": 2834, "##hman": 13890, "flea": 26735, "shivering": 19197, "pang": 20657, "advertisement": 15147, "cape": 4880, "1975": 3339, "clarkson": 18648, "opposition": 4559, "lord": 2935, "liberalism": 26505, "drying": 17462, "[unused282]": 287, "##weather": 28949, "owl": 13547, "strip": 6167, "keen": 10326, "passing": 4458, "##tituted": 29139, "[unused971]": 976, "[unused202]": 207, "nestled": 22704, "duran": 22959, "narayan": 24331, "accompany": 12673, "paste": 19351, "##morphism": 19539, "ambassadors": 20986, "rob": 6487, "solitary": 14348, "anatolia": 23747, "calhoun": 22982, "quarterly": 12174, "polytechnic": 14466, "centred": 16441, "consultation": 16053, "##\u2265": 30136, "rabbis": 25602, "reuben": 17294, "courses": 5352, "enjoyable": 22249, "##st": 3367, "wagon": 9540, "##nine": 19105, "##sma": 26212, "##lion": 18964, "snuck": 24492, "##zation": 9276, "estrada": 26482, "##o": 2080, "items": 5167, "341": 28358, "louise": 8227, "iran": 4238, "ligand": 27854, "consecration": 24730, "creamy": 24519, "[unused905]": 910, "reduce": 5547, "##cens": 19023, "660": 20982, "departure": 6712, "rupert": 14641, "##raction": 25533, "##ats": 11149, "secret": 3595, "##pr": 18098, "grain": 8982, "owed": 12232, "taboo": 27505, "increasing": 4852, "vaccines": 28896, "shi": 11895, "##tal": 9080, "legions": 23269, "ill": 5665, "roma": 12836, "labyrinth": 24239, "being": 2108, "timer": 25309, "yao": 23711, "inquiry": 9934, "monks": 9978, "knighted": 19572, "montenegrin": 24099, "something": 2242, "acc": 16222, "his": 2010, "sue": 9790, "##llation": 20382, "playback": 18245, "proficiency": 26293, "##beam": 28302, "beckett": 20599, "##vered": 25896, "parental": 18643, "##hine": 14014, "tomato": 20856, "internationally": 7587, "guessing": 16986, "museums": 9941, "observer": 9718, "angular": 16108, "sliced": 15920, "humans": 4286, "\u2248": 1606, "togo": 23588, "slippery": 22274, "canceled": 13261, "##ically": 15004, "filling": 8110, "hits": 4978, "vodka": 21092, "##nl": 20554, "libertarian": 19297, "guaranteed": 12361, "investigation": 4812, "##swick": 27720, "refurbished": 18662, "[unused416]": 421, "##\u0b9a": 29919, "shop": 4497, "cottages": 18918, "math": 8785, "dan": 4907, "registry": 15584, "##athi": 25457, "rio": 5673, "[unused121]": 126, "rodeo": 18936, "needs": 3791, "canadians": 16485, "##ev": 6777, "reversed": 11674, "renewable": 13918, "kelley": 19543, "austria": 5118, "punch": 8595, "specialising": 23315, "##kley": 22315, "populations": 7080, "##6th": 25994, "electron": 10496, "##\u0925": 29860, "\u7ae0": 1932, "bernhard": 21432, "roof": 4412, "wwe": 11700, "psalms": 26130, "faculties": 18658, "relative": 5816, "##iche": 17322, "mohawk": 22338, "simulate": 26633, "francais": 22357, "devote": 23313, "adele": 17623, "clear": 3154, "inspired": 4427, "##ior": 25346, "\u00a32": 21853, "period": 2558, "cyber": 16941, "demonstrators": 28337, "screened": 12238, "reconcile": 21063, "my": 2026, "simpler": 16325, "reverend": 10547, "seton": 28796, "[unused330]": 335, "unicode": 27260, "deborah": 15555, "##mut": 28120, "skirmish": 27264, "shouted": 6626, "\u10d1": 1439, "costa": 6849, "knives": 13227, "indigo": 22472, "\u0563": 1221, "holdings": 9583, "organizations": 4411, "338": 27908, "adjacent": 5516, "nobility": 11760, "decker": 20946, "erika": 24900, "[unused362]": 367, "##isi": 17417, "zach": 12397, "spruce": 19893, "##lic": 10415, "##lands": 8653, "##emy": 26662, "labs": 13625, "relation": 7189, "gamer": 27911, "brooks": 8379, "\u30a8": 1698, "mclaughlin": 23720, "ai": 9932, "bring": 3288, "consolation": 24831, "supplies": 6067, "researcher": 10753, "runways": 24578, "symbolism": 22050, "subordinate": 15144, "[unused606]": 611, "tis": 22320, "gentry": 20262, "bike": 7997, "##take": 15166, "destroys": 20735, "from": 2013, "guernsey": 24640, "sprang": 15627, "wool": 12121, "formations": 13197, "wilder": 18463, "\u4e00": 1740, "[unused225]": 230, "##\u6238": 30383, "##grapher": 18657, "cinnamon": 21229, "2019": 10476, "ferrara": 28635, "campo": 22339, "\u0e25": 1418, "1708": 27337, "##lidae": 21595, "analyze": 17908, "yellowish": 17804, "##cci": 14693, "[unused267]": 272, "fracture": 19583, "answer": 3437, "\u05e0": 1257, "whales": 17967, "jeremiah": 17526, "pursued": 9505, "get": 2131, "##ston": 7106, "##gic": 12863, "commanders": 11437, "iain": 24486, "warehouse": 9746, "##lick": 25230, "grimm": 24287, "wayne": 6159, "insisted": 7278, "[unused259]": 264, "eats": 20323, "sociology": 11507, "redesignated": 11836, "brandon": 8825, "unearthed": 27422, "distribution": 4353, "potomac": 18854, "variety": 3528, "135": 11502, "rotated": 20931, "reel": 15934, "[unused39]": 40, "##ttered": 14795, "snakes": 12971, "lettering": 25782, "eminent": 14953, "emptied": 21764, "unofficially": 29322, "roland": 8262, "sixty": 8442, "swallowing": 18468, "difficult": 3697, "\u671d": 1874, "superficial": 23105, "pro": 4013, "privateer": 26790, "slack": 19840, "fatally": 26292, "##wi": 9148, "plush": 27729, "presidential": 4883, "beams": 13110, "outbreak": 8293, "##arion": 27548, "dick": 5980, "##nese": 14183, "##ulate": 9869, "sax": 19656, "josephine": 16117, "passion": 6896, "wires": 14666, "##in": 2378, "geologic": 22125, "[unused978]": 983, "boost": 12992, "officials": 4584, "molecular": 8382, "coordinated": 14206, "specifications": 15480, "projective": 27473, "950": 20317, "##mma": 14760, "1697": 28690, "pedal": 15749, "elliptic": 29413, "workforce": 14877, "##gur": 27390, "[unused849]": 854, "##acies": 20499, "##nsis": 11745, "procurement": 21423, "rewarded": 14610, "islander": 12544, "bog": 22132, "hospice": 29277, "##ening": 7406, "electrode": 28688, "botanic": 27761, "##v": 2615, "##\u057e": 29782, "2a": 23409, "supply": 4425, "##life": 15509, "[unused450]": 455, "informally": 21858, "##val": 10175, "millimetres": 13388, "luigi": 15153, "##vies": 25929, "boundaries": 7372, "##nta": 12380, "advice": 6040, "mankind": 14938, "##ric": 7277, "completing": 7678, "##folk": 29284, "rats": 11432, "30": 2382, "##bie": 11283, "gifts": 9604, "fleets": 25515, "pharmacy": 13882, "maha": 24404, "clipped": 20144, "##\u0995": 29889, "\u0e40": 1423, "sometime": 8811, "charlemagne": 27257, "stucco": 27443, "barbecue": 26375, "renee": 17400, "##sul": 23722, "intercept": 19115, "stalk": 23899, "##\u6d77": 30428, "leadership": 4105, "poorer": 27196, "notation": 14869, "chong": 24008, "##para": 28689, "challenges": 7860, "##vira": 24093, "incumbent": 7703, "horseback": 19926, "cards": 5329, "suspension": 8636, "footballers": 27784, "milo": 20359, "cinematic": 21014, "gustav": 13430, "punches": 17957, "harrisburg": 24569, "fray": 25975, "[unused570]": 575, "##bble": 11362, "che": 18178, "lined": 7732, "railroad": 4296, "[unused980]": 985, "spears": 13957, "superiority": 19113, "spec": 28699, "russo": 17023, "confuse": 28679, "masovian": 23703, "bahrain": 15195, "##rar": 19848, "smelled": 9557, "bernardino": 21370, "streams": 9199, "bowl": 4605, "gee": 20277, "libyan": 19232, "prospect": 9824, "##riated": 25475, "broom": 23528, "sexes": 21024, "virgin": 6261, "sheds": 25999, "##\u5bbf": 30352, "antiquity": 16433, "syntax": 20231, "##ron": 4948, "criterion": 19229, "dorsey": 27332, "stan": 9761, "pinto": 25066, "zen": 16729, "stitch": 26035, "##oria": 11069, "identify": 6709, "##evsky": 27015, "centenary": 17705, "outdated": 25963, "[unused20]": 21, "##pipe": 24548, "sally": 8836, "vishnu": 17647, "secession": 22965, "controversial": 6801, "tribune": 10969, "##borg": 11755, "##scoe": 28147, "harder": 6211, "commencement": 20561, "muscles": 6650, "\u5b89": 1820, "[unused60]": 61, "where": 2073, "##\u02b2": 29707, "##\u1100": 29991, "peck": 18082, "seek": 6148, "gleamed": 25224, "resisted": 13335, "liar": 16374, "##dl": 19422, "shetland": 25552, "##ilis": 24411, "realm": 8391, "bulldog": 28628, "sixteenth": 14683, "\u0f0d": 1425, "drains": 18916, "apical": 29197, "##mat": 18900, "lion": 7006, "\u2098": 1567, "alliance": 4707, "vii": 8890, "huff": 21301, "##des": 6155, "inquiries": 27050, "covent": 29456, "groundbreaking": 23222, "lazarus": 23623, "passengers": 5467, "discs": 15303, "jo": 8183, "stump": 22475, "##thic": 23048, "\u0639": 1288, "chuckle": 15375, "margaret": 5545, "inactive": 16389, "air": 2250, "confusion": 6724, "##sas": 20939, "conditional": 18462, "loans": 10940, "friction": 15012, "sonar": 24609, "violin": 6710, "atmospheric": 12483, "gangs": 18542, "##cion": 10446, "\u02e2": 1152, "midland": 12240, "flowers": 4870, "##\u0446": 29751, "##\u30c3": 30237, "1948": 3882, "meaning": 3574, "ropes": 14607, "electrical": 5992, "##\u092a": 29864, "##ius": 4173, "cheering": 24867, "fuels": 20145, "preparation": 7547, "##nies": 15580, "posed": 13686, "about": 2055, "##feit": 21156, "indicator": 17245, "fra": 25312, "m": 1049, "roe": 20944, "##tze": 23102, "franco": 9341, "shuffled": 18764, "satisfy": 13225, "##ase": 11022, "##late": 13806, "##able": 3085, "considerations": 16852, "raiding": 23530, "helena": 10269, "swayed": 20122, "odi": 21045, "\u5409": 1793, "##ky": 4801, "greenwich": 13861, "fail": 8246, "cuisine": 12846, "\u0282": 1129, "seize": 15126, "fish": 3869, "tight": 4389, "tinted": 25577, "mane": 23055, "erasmus": 26809, "harley": 13653, "\u30b7": 1706, "severely": 8949, "kota": 23856, "##\u3092": 30216, "commandant": 15254, "##hu": 6979, "##owski": 15249, "award": 2400, "muhammad": 7187, "discusses": 15841, "[unused472]": 477, "##tage": 26702, "##\u2093": 30092, "rotational": 25254, "pre": 3653, "benfica": 26542, "guidelines": 11594, "hard": 2524, "##lind": 27164, "##lga": 27887, "confirmation": 13964, "##shire": 7430, "comparatively": 20172, "decorative": 11584, "2014": 2297, "endelle": 29581, "rivers": 5485, "##elman": 23830, "##\u11ab": 30021, "disagreement": 18185, "hiss": 19074, "##ran": 5521, "missile": 7421, "cinema": 5988, "##ada": 8447, "alcohol": 6544, "register": 4236, "rios": 25836, "beliefs": 9029, "alter": 11477, "potatoes": 14629, "house": 2160, "behold": 27541, "[unused201]": 206, "\u00a6": 1072, "loki": 24143, "##\u533a": 30308, "ecstasy": 19069, "wolf": 4702, "yoko": 28758, "preceded": 11677, "##cine": 16567, "164": 17943, "[unused470]": 475, "relatives": 9064, "boarded": 17383, "disorders": 10840, "spp": 26924, "forgive": 9641, "algiers": 22947, "##tc": 13535, "din": 11586, "allegro": 25319, "bracelet": 19688, "after": 2044, "##ental": 21050, "284": 26871, "april": 2258, "keating": 25865, "damaging": 15011, "mueller": 26774, "restored": 5854, "nightmare": 10103, "289": 27054, "clements": 28572, "contestants": 10584, "##bas": 22083, "starvation": 22611, "butterflies": 15023, "##tyle": 27983, "baskets": 25946, "convention": 4680, "\u11b8": 1488, "healthcare": 9871, "manning": 11956, "boise": 23193, "counter": 4675, "ambiguity": 27637, "risky": 19188, "fusiliers": 27207, "examines": 20798, "lean": 8155, "critics": 4401, "gb": 16351, "##wil": 29602, "rf": 21792, "weakened": 11855, "upgraded": 9725, "vimes": 28482, "tension": 6980, "winters": 12214, "grounded": 16764, "pockets": 10306, "field": 2492, "languages": 4155, "taft": 19911, "sermon": 18408, "techniques": 5461, "fluid": 8331, "issuing": 15089, "salamanca": 29608, "processing": 6364, "bent": 6260, "frog": 10729, "timor": 19746, "##cloth": 23095, "14th": 6400, "decreed": 28447, "40": 2871, "walls": 3681, "bs": 18667, "##mise": 28732, "[unused75]": 76, "busted": 23142, "forehead": 6130, "sired": 26940, "bound": 5391, "##\u30aa": 30225, "novgorod": 24338, "dave": 4913, "anchors": 24674, "cry": 5390, "generation": 4245, "pont": 21179, "182": 17691, "teachers": 5089, "lease": 10084, "complaining": 17949, "certified": 7378, "##\u4e0d": 30270, "chases": 29515, "andrei": 18125, "jays": 18930, "measured": 7594, "membranes": 24972, "##his": 24158, "reworked": 27575, "proto": 15053, "##ske": 17140, "broadcast": 3743, "boredom": 29556, "dreamer": 24726, "##arm": 27292, "accidents": 13436, "peeling": 28241, "\u00b1": 1081, "delta": 7160, "densely": 19441, "##tok": 18715, "variable": 8023, "##nified": 25201, "noses": 27518, "gunter": 27834, "felony": 24648, "diameter": 6705, "murphy": 7104, "biased": 25352, "##\u03c2": 19579, "funds": 5029, "vanished": 9955, "swat": 25414, "\u0679": 1301, "gps": 14658, "refer": 6523, "hundreds": 5606, "endure": 18094, "##mun": 23041, "##\u0686": 29840, "geelong": 18664, "##lding": 24573, "broncos": 14169, "\u3064": 1664, "##\u56d7": 30323, "crossroads": 16760, "nitrogen": 14114, "##ging": 4726, "media": 2865, "the": 1996, "1863": 6899, "sensed": 10596, "swallows": 26436, "\u592a": 1812, "conclusions": 15306, "##osphere": 25444, "contributed": 5201, "yvonne": 21684, "facto": 13743, "##\u098f": 29887, "diversity": 8906, "rested": 8614, "##\u76ee": 30444, "1300": 19527, "##57": 28311, "[unused795]": 800, "funk": 11962, "barron": 23594, "narrowly": 11866, "fuller": 12548, "leash": 26834, "##iro": 9711, "##ific": 18513, "angles": 12113, "wallace": 7825, "infrared": 14611, "##\u0430\u043d": 28995, "theme": 4323, "later": 2101, "##tes": 4570, "consuming": 15077, "enzyme": 9007, "haired": 10681, "cypriot": 18543, "relying": 18345, "[unused895]": 900, "heinrich": 10952, "booster": 23715, "enhancement": 22415, "domain": 5884, "##\u093e": 29876, "##swell": 19228, "zagreb": 12974, "43rd": 25747, "decree": 10037, "coasts": 20266, "barrel": 8460, "chung": 15972, "servicemen": 26714, "parsons": 13505, "armenians": 20337, "row": 5216, "hardship": 26479, "fibers": 16662, "ducks": 14875, "noelle": 22336, "cox": 9574, "hobbs": 23748, "published": 2405, "##tia": 10711, "dread": 14436, "[unused141]": 146, "##itate": 17570, "[unused516]": 521, "\u2191": 1584, "shell": 5806, "orson": 25026, "stand": 3233, "cups": 10268, "american": 2137, "[unused482]": 487, "ahl": 18347, "violations": 13302, "##mura": 16069, "##\u611b": 30379, "craft": 7477, "ana": 9617, "mann": 10856, "\u0e15": 1411, "\u79cb": 1929, "stirling": 15597, "[unused122]": 127, "anhalt": 27088, "africa": 3088, "structural": 8332, "ratification": 27369, "##ctable": 23576, "bacterial": 17341, "management": 2968, "beak": 23525, "doorstep": 26581, "window": 3332, "harald": 20966, "\u1d64": 1509, "tori": 23413, "[unused579]": 584, "nodded": 3368, "[unused17]": 18, "unmarried": 17204, "mesopotamia": 25889, "foolish": 13219, "uneven": 17837, "##rrigan": 28706, "profile": 6337, "guineas": 22385, "folding": 12745, "##\u026b": 29686, "torpedo": 9862, "\uff1a": 1993, "rainbow": 10098, "##riz": 21885, "southeast": 4643, "fearless": 22518, "taxonomy": 25274, "into": 2046, "rutland": 27780, "universities": 5534, "guillaume": 20061, "##aton": 22436, "lanes": 10914, "creations": 20677, "##olf": 28027, "reconstructed": 14858, "##trum": 24456, "herr": 23506, "##tec": 26557, "producers": 6443, "helped": 3271, "\u03b4": 1158, "professor": 2934, "hardware": 8051, "##wear": 16689, "twigs": 27964, "lev": 23310, "surgeons": 16804, "winkler": 20472, "[unused119]": 124, "instances": 12107, "infant": 10527, "biplane": 28686, "[unused108]": 113, "boasts": 21979, "puzzled": 14909, "practicing": 12560, "portfolio": 11103, "hostilities": 17601, "##book": 8654, "##5": 2629, "\u8c37": 1951, "\u4e45": 1748, "jogging": 28233, "##powered": 27267, "baden": 12189, "##ont": 12162, "revenues": 12594, "##\u2084": 17004, "[unused401]": 406, "261": 24441, "vc": 18315, "crowned": 10249, "snout": 17291, "maturity": 16736, "plane": 4946, "beginning": 2927, "advertising": 6475, "temperatures": 7715, "shredded": 29022, "##\u0906": 29848, "stones": 6386, "##any": 19092, "definitive": 15764, "451": 28161, "jim": 3958, "degree": 3014, "maya": 9815, "foundation": 3192, "may": 2089, "##dder": 20791, "##tish": 24788, "zebra": 29145, "initials": 20381, "##tle": 9286, "introduce": 8970, "shrewsbury": 18174, "\u099c": 1358, "bunch": 9129, "pendulum": 28300, "##der": 4063, "\u00bd": 1092, "prominently": 14500, "wartime": 12498, "rampage": 29216, "\u2084": 1551, "orion": 18747, "\u0621": 1269, "koch": 15259, "subsp": 24807, "roundabout": 22831, "whistling": 24350, "buzz": 12610, "roam": 25728, "##rasia": 27839, "uranium": 14247, "continents": 17846, "apartheid": 17862, "[unused889]": 894, "oxford": 4345, "declined": 6430, "##neo": 23585, "villains": 16219, "wept": 24966, "ounce": 19471, "fowler": 14990, "drugged": 25483, "actual": 5025, "slovenia": 10307, "doll": 10658, "kyoto": 15008, "[unused67]": 68, "debts": 13930, "viva": 20022, "upstate": 29530, "ng": 12835, "nicknamed": 9919, "guarantees": 21586, "repay": 24565, "carriage": 9118, "ourselves": 9731, "arroyo": 23882, "okinawa": 15052, "##lson": 14881, "former": 2280, "mural": 15533, "futile": 24495, "##\u0924": 29859, "##tation": 12516, "aquitaine": 24973, "r": 1054, "hood": 7415, "\u1d56": 1504, "luciano": 24512, "brutality": 24083, "oman": 16640, "##ups": 22264, "mari": 16266, "##get": 18150, "consumption": 8381, "attractive": 8702, "##tp": 25856, "registered": 5068, "##eca": 19281, "1846": 9244, "\u5e73": 1839, "jonas": 10680, "##lou": 23743, "rudder": 24049, "##0": 2692, "mal": 15451, "##lene": 11474, "promising": 10015, "blinding": 19709, "explosion": 7738, "##gy": 6292, "minutes": 2781, "##books": 17470, "##ith": 8939, "##kers": 11451, "serbia": 7238, "cal": 10250, "##tti": 6916, "thanks": 4283, "schleswig": 21173, "##mm": 7382, "completion": 6503, "entirely": 4498, "##adan": 26335, "##sos": 17063, "thru": 27046, "##anu": 24076, "pursuits": 23719, "ah": 6289, "borg": 28709, "radial": 15255, "##yana": 16811, "##dos": 12269, "disappeared": 5419, "##apple": 23804, "brute": 26128, "[unused745]": 750, "mp3": 23378, "technology": 2974, "[unused594]": 599, "burnt": 11060, "weddings": 20429, "integral": 9897, "lyons": 16642, "moscow": 4924, "marino": 17185, "pianist": 9066, "##cating": 18252, "resisting": 22363, "##au": 4887, "butte": 25024, "nas": 17235, "\u5c0f": 1829, "##\u0582": 29785, "##xed": 19068, "##\u2030": 30065, "capturing": 11847, "tagged": 26610, "francaise": 18427, "complement": 13711, "agents": 6074, "combining": 11566, "##owing": 14138, "##ach": 6776, "arranged": 5412, "discouraged": 22585, "cat": 4937, "humble": 15716, "\u1d57": 1505, "witnessing": 24740, "##met": 11368, "188": 19121, "waters": 5380, "thickness": 14983, "##cable": 21170, "maids": 29229, "rattled": 19252, "remark": 17674, "hormone": 18714, "cai": 29080, "##atz": 20501, "commotion": 23960, "atv": 29108, "07": 5718, "grill": 18651, "exit": 6164, "minor": 3576, "bobbie": 27731, "hailed": 16586, "shareholders": 15337, "##tility": 18724, "emails": 22028, "fashioned": 13405, "##as": 3022, "yellowstone": 29231, "visibly": 19397, "1855": 8492, "##]": 29636, "490": 22288, "fry": 14744, "dialogue": 7982, "##ikh": 28209, "lip": 5423, "creeping": 18266, "letting": 5599, "uci": 14504, "tenants": 14665, "##romatic": 23645, "fleeing": 14070, "\u0254": 1112, "slide": 7358, "herring": 22103, "sad": 6517, "spur": 12996, "kirk": 11332, "pen": 7279, "string": 5164, "shares": 6661, "locke": 18343, "[unused321]": 326, "gross": 7977, "evangelist": 24036, "electronics": 8139, "intercity": 20651, "ama": 25933, "forte": 24898, "coronation": 12773, "veronica": 13133, "installation": 8272, "##beat": 19442, "[unused132]": 137, "femme": 26893, "treatment": 3949, "vary": 8137, "refusal": 13948, "forgetting": 17693, "##wed": 15557, "##tan": 5794, "##vable": 12423, "##tory": 7062, "##mount": 20048, "[unused910]": 915, "speed": 3177, "tasmanian": 21394, "dire": 18704, "intend": 13566, "analyzed": 16578, "nikola": 24794, "guinness": 17323, "ignored": 6439, "##los": 10483, "##}": 29642, "lennox": 21060, "outlawed": 29131, "frankly": 19597, "##\u09c7": 29917, "allison": 10786, "bahadur": 21715, "contrasts": 23347, "##von": 17789, "memorandum": 20336, "##rat": 8609, "intimidated": 28028, "jude": 12582, "operations": 3136, "devised": 14917, "##bate": 20179, "size": 2946, "shay": 18789, "sober": 17358, "\u2502": 1616, "mathews": 23287, "commence": 22825, "##\u0dbb": 29941, "##oms": 22225, "vicar": 12340, "meaningful": 15902, "campeonato": 17675, "[unused521]": 526, "professionally": 12145, "kerala": 8935, "nacional": 10718, "ellis": 8547, "freighter": 27945, "toni": 16525, "chrome": 18546, "notoriety": 23215, "cmll": 25395, "##pen": 11837, "massimo": 28080, "stanza": 29509, "##gley": 22971, "hears": 14994, "frost": 10097, "blasts": 25829, "\u03c7": 1177, "##tick": 26348, "monastic": 17361, "##\u0251": 29677, "offer": 3749, "heat": 3684, "writers": 4898, "waved": 7147, "undo": 25672, "lee": 3389, "crete": 19111, "hasan": 17000, "compensated": 29258, "recaptured": 23838, "renault": 14605, "estonian": 12029, "worry": 4737, "salman": 28542, "##mbs": 29232, "jedi": 27273, "correspondence": 11061, "##arth": 22425, "##oro": 14604, "##edging": 28002, "nmi": 22484, "16th": 5767, "[unused861]": 866, "showing": 4760, "##vr": 19716, "destinations": 14345, "\u2609": 1622, "develops": 11791, "abolitionist": 29554, "##\u65b9": 30389, "limit": 5787, "cultural": 3451, "wrexham": 27119, "accomplish": 14570, "tape": 6823, "to": 2000, "##hner": 28989, "taxpayer": 26980, "##hdi": 22960, "influenced": 5105, "innings": 7202, "emerging": 8361, "superman": 10646, "##no": 3630, "collapsed": 7798, "progression": 14967, "creatures": 7329, "serena": 14419, "composers": 9929, "mocking": 19545, "proving": 13946, "##hed": 9072, "analog": 11698, "##\u0292": 29704, "dar": 18243, "enduring": 16762, "##bang": 25153, "##rit": 14778, "changing": 5278, "mixes": 21109, "murderous": 25303, "berth": 17064, "commencing": 25819, "##ock": 7432, "howled": 27489, "[unused376]": 381, "wilfred": 26026, "transports": 19003, "harrison": 6676, "allied": 6035, "\u0268": 1118, "bafta": 22284, "near": 2379, "dominated": 6817, "##has": 14949, "m2": 25525, "darkening": 27862, "manner": 5450, "saratoga": 23136, "ferrari": 13632, "ii": 2462, "##houses": 15666, "##zoo": 23221, "ions": 15956, "[unused336]": 341, "analogue": 21800, "seismic": 22630, "facilities": 4128, "augustus": 11668, "clarissa": 25260, "lagoon": 15825, "accountants": 29114, "##nova": 13455, "annapolis": 24889, "individuals": 3633, "luc": 12776, "1990": 2901, "usage": 8192, "grandmother": 7133, "railways": 7111, "fantasia": 29203, "fi": 10882, "trench": 14185, "motto": 12652, "pianos": 27864, "lottery": 15213, "reich": 14365, "283": 25504, "goddess": 7804, "contacts": 10402, "shorts": 9132, "oak": 6116, "constitution": 4552, "##ji": 4478, "##\u116d": 30013, "measures": 5761, "stunning": 14726, "##ually": 28488, "##kk": 19658, "restore": 9239, "psalm": 22728, "orchestra": 4032, "##ris": 6935, "##dong": 17679, "gang": 6080, "iraq": 5712, "describes": 5577, "sturdy": 23073, "goalscorer": 28602, "[unused248]": 253, "speak": 3713, "##\u2261": 30134, "nat": 14085, "used": 2109, "##\u301c": 30171, "input": 7953, "##\u0430": 10260, "##rrard": 29599, "joints": 17651, "unbearable": 24257, "silas": 18553, "buckley": 17898, "affirmed": 19768, "dixon": 11357, "##a": 2050, "intimately": 29024, "anger": 4963, "uncommon": 13191, "510": 23475, "hinted": 21795, "myrtle": 21381, "und": 6151, "##bil": 14454, "nine": 3157, "blanca": 27538, "##rie": 7373, "##tail": 14162, "submit": 12040, "cracked": 9630, "crying": 6933, "##under": 20824, "##\u30a2": 30219, "##cter": 21162, "diner": 15736, "firing": 7493, "coaching": 7748, "thrusting": 21468, "replica": 15059, "bourbon": 15477, "palmer": 8809, "foil": 17910, "metallic": 12392, "bruno": 10391, "derbyshire": 15207, "glendale": 27649, "equally": 8053, "##ety": 27405, "treacherous": 26648, "indicates": 7127, "2007": 2289, "producer": 3135, "consul": 11801, "balloons": 22163, "layers": 9014, "[unused15]": 16, "explores": 15102, "kepler": 28219, "boogie": 21495, "ancestor": 13032, "bb": 22861, "\u308d": 1689, "denotes": 14796, "dissent": 24116, "##gua": 19696, "glided": 26936, "newtown": 26382, "##chrome": 20366, "momma": 23603, "##\u52dd": 30306, "succumbed": 25642, "specialised": 17009, "colombian": 13598, "mcpherson": 24332, "tv": 2694, "simone": 14072, "##bo": 5092, "##rade": 13662, "42": 4413, "anthology": 9637, "economic": 3171, "dade": 27647, "textbook": 16432, "##ovic": 9142, "chopper": 28057, "interstate": 7553, "kidnapping": 15071, "glee": 18874, "##rath": 27362, "freedoms": 22467, "dale": 8512, "ir": 20868, "[unused71]": 72, "surf": 14175, "thirty": 4228, "[unused410]": 415, "comforting": 16334, "##gos": 12333, "dressed": 5102, "thereby": 8558, "##chester": 25322, "confess": 18766, "quartet": 8530, "##!": 29612, "target": 4539, "##lization": 22731, "##vocation": 19152, "##icus": 14239, "traverse": 20811, "emory": 25853, "stifled": 27146, "ignatius": 26841, "delle": 24121, "donovan": 12729, "moaned": 12557, "beech": 21760, "25th": 10965, "waistband": 27553, "1903": 5778, "syndication": 26973, "161": 17365, "all": 2035, "personally": 7714, "disguised": 17330, "hawaii": 7359, "talbot": 14838, "belt": 5583, "succeeded": 4594, "cock": 10338, "harmony": 9396, "imprint": 15738, "loyola": 21580, "##hoff": 17896, "chalmers": 29069, "henrietta": 20775, "declaring": 13752, "tanker": 20135, "##piration": 16781, "\u04cf": 1218, "foley": 17106, "firms": 9786, "philology": 29286, "counterparts": 14562, "##lar": 8017, "##hg": 25619, "roanoke": 25899, "negative": 4997, "photographers": 17008, "useless": 11809, "enforced": 16348, "hips": 6700, "sloan": 19024, "rematch": 18229, "##gny": 19393, "##lio": 12798, "\u0290": 1136, "reproduced": 22296, "rent": 9278, "vamps": 24064, "pedro": 7707, "su": 10514, "crawford": 10554, "barrie": 24953, "fringe": 13548, "##ffs": 21807, "lack": 3768, "smoothly": 15299, "nationale": 17360, "harris": 5671, "##\u0dbd": 29942, "1942": 3758, "##hot": 12326, "##around": 24490, "##ctic": 13306, "ru": 21766, "##dre": 16200, "preaching": 17979, "##nius": 20447, "compliance": 12646, "multiplied": 28608, "tests": 5852, "##ented": 14088, "##naud": 26160, "noise": 5005, "##\u90fd": 30487, "feng": 19004, "##aman": 23093, "thirds": 12263, "1654": 27445, "hungarian": 5588, "divided": 4055, "gust": 26903, "monitoring": 8822, "dental": 11394, "beacon": 14400, "##cat": 11266, "##zio": 12426, "patton": 18090, "sequences": 10071, "pine": 7222, "kari": 27356, "medial": 23828, "selling": 4855, "toilet": 11848, "ud": 20904, "paisley": 23321, "subjected": 13532, "invasion": 5274, "##roller": 26611, "how": 2129, "swimming": 5742, "##jk": 15992, "propelled": 15801, "aero": 18440, "[unused65]": 66, "withdrew": 6780, "##dhi": 19114, "pigeons": 27567, "##dad": 14697, "cargo": 6636, "shandong": 25768, "distraught": 25348, "casts": 23942, "retailers": 16629, "escaping": 13002, "rhyme": 20622, "battlefield": 11686, "organs": 11595, "ea": 19413, "article": 3720, "rivalry": 10685, "horses": 5194, "fellows": 13572, "budge": 24981, "123": 13138, "conviction": 10652, "chemotherapy": 27144, "cruise": 8592, "philippe": 11169, "relate": 14396, "task": 4708, "hackney": 28425, "zur": 17924, "intermediate": 7783, "##oom": 17650, "seem": 4025, "spores": 23763, "malay": 12605, "compatibility": 21778, "conclusion": 7091, "aug": 15476, "##inate": 14776, "echoing": 17142, "1720": 23535, "suffix": 16809, "chaplain": 14011, "##hui": 20552, "##\u5185": 30299, "torres": 13101, "pas": 14674, "securing": 12329, "semantics": 28081, "bryant": 12471, "priority": 9470, "##cic": 19053, "\u0250": 1109, "jurisdiction": 7360, "329": 29567, "waterloo": 13784, "worried": 5191, "intro": 17174, "dependency": 24394, "##minated": 26972, "wash": 9378, "johannesburg": 15976, "##cking": 23177, "video": 2678, "poets": 9736, "[unused424]": 429, "##\u207a": 12744, "92": 6227, "exceeding": 17003, "ones": 3924, "##bolt": 22803, "righteous": 19556, "##\u09ae": 29906, "snarled": 15022, "croydon": 21838, "##kie": 11602, "##ho": 6806, "cinematography": 16434, "horrified": 14603, "##ichi": 11319, "139": 16621, "communion": 15661, "relegation": 9591, "sheer": 11591, "##hort": 27794, "##wg": 27767, "##ml": 19968, "##tad": 17713, "stuart": 6990, "address": 4769, "\u02bb": 1145, "responsibility": 5368, "nonsense": 14652, "tucked": 9332, "confident": 9657, "inhibit": 26402, "spain": 3577, "etc": 4385, "##lynn": 27610, "\u02b2": 1141, "pledge": 16393, "fitch": 26062, "ledge": 18283, "containers": 16143, "broughton": 29187, "1718": 26995, "sultanate": 21308, "proton": 20843, "##ima": 9581, "nash": 10594, "tribes": 6946, "weaker": 15863, "woodlands": 19268, "gravely": 28070, "auction": 10470, "##rne": 12119, "##lowe": 27663, "mobile": 4684, "farewell": 13407, "altering": 22552, "crunch": 24514, "\u0111": 1102, "[unused970]": 975, "encompasses": 13974, "stoke": 13299, "pilot": 4405, "utility": 9710, "uniting": 26112, "pizza": 10733, "codes": 9537, "punt": 18975, "##lav": 14973, "danzig": 26669, "berber": 27514, "##gne": 10177, "##lved": 26832, "advantages": 12637, "##ege": 24746, "canon": 9330, "susquehanna": 26361, "drawing": 5059, "factions": 13815, "\u52dd": 1780, "added": 2794, "expanding": 9186, "premio": 23031, "sway": 17812, "\u0192": 1108, "sheffield": 8533, "truths": 23019, "restraint": 19355, "pamphlet": 19899, "titanic": 20753, "socially": 14286, "##roved": 26251, "##omy": 16940, "transmitting": 23820, "rainfall": 10101, "tack": 26997, "persistence": 28297, "conservatoire": 29233, "lesser": 8276, "mps": 12616, "forthcoming": 16875, "alliances": 21277, "impatiently": 19951, "##ghi": 28891, "materialized": 27075, "creators": 17277, "olympian": 25977, "[unused690]": 695, "technicians": 20202, "##point": 8400, "dinah": 26562, "\u0648": 1298, "flashlight": 15257, "\u21a6": 1588, "skilled": 10571, "swallowed": 7351, "stadiums": 28244, "prop": 17678, "##nished": 28357, "unemployment": 12163, "##eptive": 22048, "##elles": 22869, "nate": 8253, "##scu": 28817, "##dron": 19440, "jars": 25067, "modernization": 20181, "313": 22997, "administratively": 23710, "screenings": 25437, "groningen": 29070, "gdansk": 21942, "hangar": 18284, "montpellier": 28153, "departed": 7745, "##\u306e": 30197, "##\u5dff": 30363, "tragedy": 10576, "##wc": 16526, "##uron": 21017, "guthrie": 19952, "due": 2349, "\u1d2e": 1491, "completely": 3294, "alarms": 29034, "##rgos": 22280, "clara": 10254, "chuckles": 26088, "##ople": 27469, "##\u05d7": 29794, "born": 2141, "withdraw": 10632, "template": 23561, "1850": 7973, "melbourne": 4940, "greeting": 14806, "[unused188]": 193, "prove": 6011, "barlow": 17803, "toy": 9121, "format": 4289, "behave": 16582, "proceeds": 10951, "##ther": 12399, "marvel": 8348, "stolen": 7376, "##makers": 12088, "##son": 3385, "skylar": 27970, "subdivision": 12572, "campaigned": 16196, "possessive": 22105, "weekday": 16904, "##dog": 16168, "##pkins": 29531, "##isse": 23491, "focal": 15918, "occupational": 16928, "sweetness": 23210, "arising": 17707, "nineteenth": 9137, "sprayed": 25401, "flew": 5520, "roadway": 18799, "##\u0437": 29744, "contrast": 5688, "[unused361]": 366, "1611": 28769, "##dened": 24589, "electoral": 6092, "wouldn": 2876, "1685": 25053, "curriculum": 8882, "threaded": 26583, "alvin": 17348, "##ola": 6030, "runoff": 19550, "\u30a3": 1694, "boundary": 6192, "surrounding": 4193, "arrival": 5508, "##\u03b5": 29723, "meritorious": 22053, "scrubbed": 27820, "##lift": 18412, "suv": 15620, "grassy": 22221, "hendricks": 28895, "clubhouse": 22067, "healthy": 7965, "##mal": 9067, "dragging": 11920, "rulers": 11117, "edge": 3341, "morton": 11164, "flux": 19251, "##rka": 22379, "settlement": 4093, "risking": 26875, "obvious": 5793, "##\u9ad8": 30507, "thump": 21324, "eastward": 17318, "clifton": 16271, "states": 2163, "giovanni": 9136, "[unused95]": 96, "abrupt": 18772, "antibiotics": 24479, "accelerated": 14613, "380": 17014, "stride": 18045, "bombardment": 10400, "115": 10630, "##scopic": 24895, "##combe": 14149, "frazier": 26551, "restaurant": 4825, "qu": 24209, "##chai": 24925, "1876": 7326, "vague": 13727, "border": 3675, "##claim": 25154, "eagle": 6755, "treated": 5845, "##\u044f": 17432, "cores": 25562, "drives": 9297, "contain": 5383, "machinery": 10394, "\u6771": 1879, "pudding": 29593, "##cl": 20464, "lea": 12203, "[unused797]": 802, "julia": 6423, "parchment": 22433, "##ural": 11137, "moran": 17866, "raaf": 22709, "caps": 9700, "aggregator": 24089, "warns": 19428, "sideways": 12579, "proponent": 22488, "billy": 5006, "messina": 27270, "assuming": 10262, "##phonic": 27385, "developers": 9797, "defected": 26330, "##\u0f58": 29968, "softness": 27012, "threw": 4711, "1735": 26063, "fairy": 8867, "bois": 19651, "##yo": 7677, "##away": 9497, "[unused246]": 251, "wore": 5078, "arise": 13368, "reproductive": 15124, "##leg": 23115, "broadcasts": 8960, "##backs": 12221, "violinist": 16609, "spurs": 18205, "##ves": 6961, "deter": 28283, "haryana": 23261, "kappa": 16000, "##\u3053": 30181, "guyana": 18786, "returns": 5651, "favourable": 18731, "isn": 3475, "1888": 6690, "clerks": 26706, "ape": 23957, "##avia": 15164, "postwar": 20013, "skipping": 25978, "onstage": 23542, "involve": 9125, "restrictive": 25986, "##aly": 20766, "rita": 11620, "diffusion": 19241, "barney": 15377, "##ib": 12322, "stranded": 15577, "##inge": 23496, "dump": 15653, "certificates": 17987, "saliva": 26308, "badminton": 14618, "##rial": 14482, "neurological": 23130, "controlled": 4758, "##ution": 13700, "##ysis": 20960, "##ana": 5162, "mackay": 17090, "tq": 28816, "##\u27e9": 30156, "greyhound": 21220, "##oped": 24174, "sons": 4124, "##rik": 15564, "jerry": 6128, "lunged": 17755, "silicon": 13773, "chandra": 16469, "##tase": 18260, "islanders": 16422, "unknown": 4242, "princes": 12000, "##tao": 28555, "disgusted": 17733, "de": 2139, "atheist": 23503, "[unused247]": 252, "background": 4281, "apocalypse": 16976, "loved": 3866, "three": 2093, "ri": 15544, "speculated": 15520, "exception": 6453, "london": 2414, "moods": 27824, "granting": 15080, "forestry": 13116, "specified": 9675, "deity": 12764, "urgency": 19353, "council": 2473, "strokes": 13692, "murdering": 21054, "ponce": 21085, "##\u2085": 30081, "##nant": 16885, "moreover": 9308, "franks": 21310, "jed": 24401, "mendes": 27916, "##laise": 25122, "coloring": 22276, "futsal": 21921, "elisa": 29490, "\u66f2": 1870, "rusty": 13174, "\u1165": 1472, "gloucester": 13370, "controversy": 6704, "##eles": 26741, "mariano": 22695, "##\u306a": 30193, "\u540d": 1795, "consonants": 19694, "arthur": 4300, "abrams": 23063, "currently": 2747, "spaniards": 20999, "geographical": 10056, "chromosomes": 26874, "##kell": 18690, "[unused601]": 606, "##ic": 2594, "manuscripts": 10485, "appreciated": 12315, "sol": 14017, "hess": 23484, "behaved": 26979, "sic": 14387, "establishments": 17228, "questionable": 21068, "augusta": 13635, "##iling": 16281, "spin": 6714, "panzer": 16946, "vance": 16672, "wurttemberg": 16346, "##igh": 18377, "##8th": 28264, "hospitals": 8323, "ins": 16021, "[unused43]": 44, "##\u5b50": 30342, "emerges": 19391, "aston": 14327, "\u09a8": 1366, "##ller": 10820, "excess": 9987, "##fur": 27942, "election": 2602, "annie": 8194, "##ene": 8625, "hurricanes": 17035, "gained": 4227, "[unused329]": 334, "nationalist": 8986, "maintain": 5441, "adamant": 29502, "bird": 4743, "##rva": 19146, "attending": 7052, "##anne": 20147, "fauna": 15018, "warming": 12959, "experience": 3325, "##ju": 9103, "[unused664]": 669, "bot": 28516, "##gr": 16523, "##van": 6212, "##yla": 23943, "reciprocal": 28309, "retrospective": 15354, "shooter": 13108, "reeling": 28515, "divide": 11443, "dangerously": 20754, "oblivious": 18333, "humane": 23369, "protruding": 23868, "##eves": 23047, "##gible": 18507, "sonora": 26647, "vocational": 13099, "disperse": 28736, "portion": 4664, "racers": 25791, "##\u5f8c": 30372, "##raus": 25965, "stroke": 6909, "mw": 12464, "outskirts": 12730, "##pants": 27578, "##acio": 21361, "infection": 8985, "##\u05e9": 29812, "##bel": 8671, "drank": 10749, "illustrated": 7203, "##ired": 27559, "baronetcy": 25071, "perch": 21836, "501": 16202, "madrid": 6921, "debuts": 26740, "##ide": 5178, "manufacturers": 8712, "jerked": 8245, "headquartered": 9403, "##hell": 18223, "poorly": 9996, "glenn": 9465, "bestowed": 17398, "staging": 15308, "officially": 3985, "romantic": 6298, "plates": 7766, "hyundai": 25983, "sabah": 22515, "advancing": 10787, "ia": 24264, "estimation": 24155, "initiate": 17820, "keith": 6766, "wilhelm": 9070, "grocery": 13025, "302": 22060, "\u207b": 1545, "cafeteria": 16673, "[unused721]": 726, "flash": 5956, "dusseldorf": 18160, "meaningless": 25120, "pile": 8632, "clemson": 25906, "inaccessible": 29104, "evolved": 7964, "3000": 11910, "rovers": 9819, "weakness": 11251, "examiner": 19684, "##\u09b0": 29908, "[unused378]": 383, "##lles": 20434, "lodge": 7410, "kerman": 24500, "inconsistent": 20316, "backup": 10200, "additionally": 5678, "fly": 4875, "hk": 22563, "landowner": 20270, "thereafter": 6920, "vitro": 25714, "spiked": 25362, "niccolo": 27033, "georges": 10870, "multiplayer": 17762, "hiding": 6318, "downtown": 5116, "forensic": 15359, "barrier": 8803, "verbal": 12064, "girl": 2611, "yells": 22114, "admissions": 20247, "##haus": 13821, "tram": 12517, "himalayas": 26779, "##oli": 10893, "##nty": 29405, "##shaw": 17980, "scored": 3195, "brave": 9191, "\u306e": 1671, "[unused725]": 730, "bulldogs": 15120, "statistical": 7778, "mtv": 8692, "\u0924": 1323, "headlining": 26533, "moravian": 28131, "evelyn": 12903, "[unused551]": 556, "##utter": 26878, "##uary": 24384, "scrolling": 28903, "1994": 2807, "supreme": 4259, "squealed": 26175, "\uff0e": 1991, "##gee": 18372, "worries": 15508, "##virus": 23350, "unpublished": 19106, "appointments": 14651, "unaware": 11499, "convoys": 23083, "##rb": 15185, "through": 2083, "##hard": 11783, "daylight": 11695, "##aris": 23061, "inscriptions": 12920, "traces": 10279, "hilly": 22800, "lying": 4688, "flemish": 15427, "surfaced": 15791, "symphonies": 29355, "stephanie": 11496, "unfit": 29439, "jake": 5180, "roster": 9238, "bc": 4647, "responses": 10960, "freeway": 10846, "heaving": 23907, "chichester": 23406, "represents": 5836, "proctor": 28770, "##\u0576": 29778, "scandinavia": 20612, "nests": 17415, "programmed": 16984, "tempest": 22553, "##\u0dba": 29940, "shaft": 9093, "tick": 16356, "supplementary": 26215, "##bahn": 16052, "norse": 15342, "deception": 17575, "colton": 21000, "whipped": 12428, "toronto": 4361, "greens": 15505, "leap": 11679, "measurements": 11702, "##500": 29345, "##wo": 12155, "governments": 6867, "cereal": 20943, "\u4e2d": 1746, "constellation": 15300, "honorable": 13556, "organizes": 22013, "judith": 12924, "fiery": 15443, "bonus": 6781, "converted": 4991, "samson": 18375, "lantern": 12856, "##drik": 28730, "##awan": 25903, "detect": 11487, "athenian": 26956, "1859": 8165, "[unused617]": 622, "corrosion": 24625, "replacing": 6419, "eun": 26070, "sierra": 7838, "49th": 25726, "##akes": 20060, "shining": 9716, "##erre": 28849, "ancient": 3418, "##lite": 22779, "metaphor": 19240, "village": 2352, "airs": 14369, "reapers": 27733, "classic": 4438, "suits": 11072, "turkmenistan": 25432, "##vial": 18660, "requirement": 9095, "french": 2413, "pipes": 12432, "wiped": 8342, "provoked": 19157, "##mur": 20136, "masked": 16520, "##erved": 25944, "wherever": 11210, "pricing": 20874, "inaugurated": 11070, "##ista": 11921, "love": 2293, "retro": 22307, "promoting": 7694, "ali": 4862, "style": 2806, "backbone": 21505, "##oic": 19419, "##oman": 20778, "retain": 9279, "##enting": 26951, "seductive": 23182, "##ffey": 24513, "##minating": 27932, "caressed": 21473, "##sky": 5874, "##oof": 21511, "pip": 28315, "wilkes": 20635, "occupied": 4548, "tt": 23746, "riots": 12925, "##nare": 26148, "##\u03b8": 29725, "surround": 15161, "##rag": 29181, "\u7701": 1920, "riff": 24808, "blessing": 13301, "instincts": 16160, "lehman": 28444, "liking": 16663, "manufactures": 22027, "standardized": 16367, "slayer": 20005, "warship": 21905, "skeletal": 20415, "accommodated": 28959, "friday": 5958, "portugal": 5978, "\u2021": 1527, "molina": 25601, "rossi": 18451, "\u03c6": 1176, "remix": 6136, "quincy": 16141, "race": 2679, "\u116e": 1478, "impose": 17607, "fargo": 23054, "##works": 9316, "morocco": 9835, "our": 2256, "repairs": 10315, "271": 25103, "[unused64]": 65, "intuition": 26406, "blow": 6271, "somethin": 27941, "\u1107": 1460, "newer": 10947, "bishop": 3387, "##outs": 12166, "##raj": 14220, "melville": 20154, "##bai": 26068, "##fy": 12031, "motorcycle": 9055, "##lly": 9215, "stockings": 26412, "interrupting": 22602, "bee": 10506, "variance": 23284, "showcasing": 27696, "##\u9547": 30492, "conglomerate": 22453, "effectively": 6464, "larkin": 25570, "[unused420]": 425, "ic": 24582, "snail": 10879, "receiver": 8393, "dung": 29328, "buster": 18396, "americana": 25988, "organisms": 11767, "##\u00a1": 29644, "glasgow": 6785, "209": 19348, "joyce": 11830, "##\u2099": 19110, "\u0459": 1215, "trolley": 20820, "digitally": 18397, "bolts": 19947, "1911": 5184, "insisting": 22604, "wellness": 25860, "##eering": 20550, "technological": 10660, "incidence": 18949, "supermarkets": 26676, "sneakers": 28130, "swimmers": 21669, "paxton": 27765, "lodged": 20451, "peaking": 13015, "portsmouth": 10913, "##;": 29628, "coin": 9226, "##nell": 9091, "##apes": 29040, "tobin": 28096, "crawling": 15927, "prevents": 16263, "has": 2038, "patrolling": 24248, "\u0441": 1196, "unpaid": 23850, "so": 2061, "lexington": 14521, "armada": 25306, "grossing": 18244, "##hini": 20535, "eclipse": 13232, "tess": 15540, "##esa": 22447, "baptised": 28798, "roi": 25223, "1893": 6489, "podcast": 16110, "barrage": 19359, "##cend": 23865, "1016": 28707, "innovative": 9525, "pleas": 22512, "utmost": 27917, "reputation": 5891, "lifespan": 26462, "[unused367]": 372, "commemorates": 25530, "remington": 25282, "fears": 10069, "loretta": 28493, "##hedral": 27310, "recognise": 17614, "##nic": 8713, "##\u2075": 30074, "darker": 9904, "minute": 3371, "touching": 7244, "##cz": 27966, "ted": 6945, "fuzzy": 18001, "##\u043d": 18947, "booker": 16674, "redhead": 26705, "waived": 16301, "taiwan": 6629, "des": 4078, "fulfill": 13883, "##\u660e": 30391, "commits": 27791, "1748": 24445, "tenderness": 24605, "annexed": 13291, "garfield": 20170, "401": 22649, "accessed": 11570, "299": 25926, "monasteries": 15947, "gp": 14246, "disturbing": 14888, "allie": 16944, "mr": 2720, "approval": 6226, "bop": 29432, "sunday": 4465, "##oe": 8913, "[unused647]": 652, "##boy": 11097, "album": 2201, "219": 20636, "nam": 15125, "seasoned": 28223, "clare": 11152, "[unused555]": 560, "arches": 13540, "keep": 2562, "studying": 5702, "tonight": 3892, "women": 2308, "##ksha": 28132, "erotic": 14253, "eighth": 5964, "ashes": 11289, "susannah": 20471, "faber": 21720, "##hia": 12995, "blackout": 26717, "automation": 19309, "unfolded": 23959, "305": 20405, "csa": 27804, "negotiated": 13630, "##iful": 18424, "nj": 19193, "breasts": 12682, "hesitant": 20221, "2017": 2418, "schneider": 15159, "##&": 29617, "2009": 2268, "fielding": 15452, "biking": 28899, "contention": 18974, "soloist": 16504, "encore": 19493, "##erry": 19826, "periodically": 18043, "1883": 7257, "principality": 18018, "\u5206": 1775, "kristina": 28802, "hesitated": 9369, "distinguish": 10782, "##\u2295": 30139, "owning": 19273, "##\u026f": 29688, "sitcom": 13130, "garbage": 13044, "##lford": 23211, "memphis": 9774, "[unused338]": 343, "families": 2945, "squares": 14320, "##pd": 17299, "\u09a6": 1364, "##dation": 20207, "primaries": 27419, "routinely": 19974, "##film": 23665, "brigadier": 9900, "jenny": 8437, "aiding": 24791, "negotiations": 7776, "[unused209]": 214, "imam": 17189, "ska": 24053, "other": 2060, "comes": 3310, "[unused286]": 291, "doesn": 2987, "##\u05be": 29787, "\u2116": 1578, "scales": 9539, "sanford": 21153, "##lika": 25421, "overtook": 28920, "fractured": 21726, "noun": 15156, "herd": 14906, "place": 2173, "commented": 7034, "##linson": 25051, "##hara": 11077, "internationale": 21339, "killing": 4288, "##sur": 26210, "privileges": 14310, "obsidian": 29042, "watershed": 12547, "congresses": 24460, "shapes": 10466, "##\u03b7\u03c2": 29155, "visions": 12018, "165": 13913, "filly": 22062, "reef": 12664, "graded": 21976, "##ova": 7103, "croatian": 7963, "antiques": 27763, "environment": 4044, "##graph": 14413, "\u53f2": 1790, "swiftly": 12128, "sima": 26769, "malaysian": 11843, "##sche": 22842, "marxism": 27255, "##uming": 24270, "blonde": 9081, "infectious": 16514, "82": 6445, "goin": 17249, "beaming": 27910, "decks": 19963, "suggest": 6592, "longer": 2936, "greeted": 11188, "dawn": 6440, "thing": 2518, "##genase": 28835, "hiroshi": 26882, "[unused993]": 998, "firstly": 15847, "walters": 19097, "corrupt": 13593, "moses": 9952, "charts": 6093, "bis": 20377, "moines": 23286, "afghanistan": 7041, "##\u6ca2": 30424, "crow": 11465, "breathe": 7200, "clandestine": 24450, "##zy": 9096, "##\u0e32": 29958, "gain": 5114, "mechanically": 27846, "interned": 26345, "sandwiches": 22094, "discharge": 11889, "periphery": 23275, "romano": 22070, "##tron": 15312, "##unda": 18426, "pennsylvania": 3552, "tristan": 9822, "systemic": 22575, "\u02e1": 1151, "uniformed": 25189, "##sen": 5054, "cache": 17053, "##omo": 19506, "[unused180]": 185, "##eet": 15558, "objections": 17304, "harmful": 17631, "hector": 10590, "braun": 21909, "vibe": 21209, "##wski": 10344, "##pate": 17585, "iss": 26354, "guiding": 14669, "hat": 6045, "ground": 2598, "oriented": 8048, "##rank": 26763, "##ike": 17339, "~": 1066, "freshman": 10452, "assumes": 15980, "sinatra": 19643, "banished": 21319, "[unused539]": 544, "rowland": 20539, "corsica": 27047, "villagers": 11904, "fragrance": 24980, "pathways": 16910, "della": 8611, "##athing": 22314, "beatrice": 14807, "beats": 10299, "kapoor": 17129, "assistant": 3353, "researched": 18800, "ether": 28855, "honour": 6225, "sketch": 11080, "bathroom": 5723, "calculus": 19276, "commissioner": 5849, "##tting": 13027, "##iente": 25099, "thigh": 10120, "##laus": 28128, "readers": 8141, "labeled": 12599, "booklet": 19271, "##iom": 18994, "whip": 11473, "win": 2663, "mongolian": 17855, "##mbling": 29256, "underlying": 10318, "guitars": 7334, "154": 16666, "##omba": 24991, "error": 7561, "qualifications": 15644, "professorship": 22661, "##mond": 11442, "bsc": 23533, "trip": 4440, "atlantic": 4448, "primate": 25662, "\u7fa9": 1936, "directed": 2856, "captain": 2952, "mia": 8764, "bubble": 11957, "fetch": 18584, "jorge": 10853, "lakshmi": 21352, "inorganic": 28256, "nicholson": 16955, "sentencing": 23280, "goldberg": 18522, "draped": 15098, "pol": 14955, "sank": 7569, "##lub": 27959, "hate": 5223, "##selle": 19358, "##erton": 20995, "demographic": 15982, "colourful": 26102, "begged": 12999, "defunct": 11984, "sbs": 21342, "cakes": 22619, "creeks": 24974, "[unused832]": 837, "detached": 12230, "mao": 15158, "##iculate": 24153, "webber": 19861, "bolsheviks": 28755, "##endra": 19524, "swirled": 19171, "##bal": 10264, "granada": 16553, "trier": 25487, "syndrome": 8715, "quotes": 16614, "##lake": 14530, "wentworth": 20572, "intersects": 17349, "##eal": 15879, "1971": 3411, "outlined": 14801, "##ffer": 12494, "princely": 22771, "mummy": 22788, "figures": 4481, "ag": 12943, "hurry": 9241, "peak": 4672, "\u0e01": 1409, "renal": 25125, "deutschland": 28668, "accepts": 13385, "geared": 23636, "quartz": 20971, "##ac": 6305, "summit": 6465, "statistics": 6747, "yiddish": 20112, "viaduct": 20596, "asserting": 27644, "elephants": 16825, "contrary": 10043, "overseen": 22485, "lamp": 10437, "montana": 8124, "tipping": 25486, "terrestrial": 12350, "musee": 18070, "[unused102]": 107, "litigation": 15382, "1827": 12309, "powers": 4204, "archaeology": 12009, "[unused326]": 331, "triggering": 29170, "inviting": 15085, "oceans": 17401, "##ptive": 24971, "shirts": 11344, "trauma": 12603, "trouble": 4390, "russ": 18072, "aires": 9149, "fontana": 27182, "[unused813]": 818, "brendan": 15039, "nigerian": 11884, "##iform": 22631, "##olt": 27914, "culturally": 20547, "securities": 12012, "circular": 8206, "finalist": 9914, "raced": 8255, "chemistry": 6370, "martyrs": 18945, "makers": 11153, "low": 2659, "reactor": 13308, "valves": 17355, "##dus": 17619, "locating": 26339, "self": 2969, "hodge": 23148, "[unused114]": 119, "##venor": 26806, "bathrooms": 28942, "development": 2458, "snorted": 15235, "revive": 17995, "cognition": 26497, "furthermore": 7297, "camel": 19130, "sided": 11536, "drawer": 13065, "##tness": 27401, "mirrored": 22243, "##zzi": 13793, "1830s": 20400, "economics": 5543, "taxes": 7773, "silva": 11183, "##kes": 9681, "1837": 9713, "coe": 24873, "[unused159]": 164, "##sten": 16173, "##runner": 23195, "motif": 16226, "[unused26]": 27, "argyle": 26503, "filtered": 21839, "sufi": 21845, "collateral": 24172, "maud": 21696, "##feld": 8151, "##hammer": 19742, "mer": 21442, "hardy": 9532, "sgt": 17001, "##edo": 26010, "##meral": 28990, "[unused328]": 333, "##ur": 3126, "humiliation": 21171, "claus": 19118, "axe": 12946, "compliment": 19394, "stained": 9702, "melissa": 9606, "##va": 3567, "alessandro": 17956, "##nged": 21558, "##open": 26915, "102": 9402, "incorrect": 16542, "##isches": 27239, "repression": 22422, "additions": 13134, "challenge": 4119, "default": 12398, "springsteen": 26002, "unnatural": 21242, "dukes": 16606, "convened": 19596, "[unused809]": 814, "lung": 11192, "chose": 4900, "spinning": 9419, "leith": 29011, "translation": 5449, "madam": 21658, "##\u0142aw": 19704, "\u0f51": 1428, "decades": 5109, "##nde": 13629, "##test": 22199, "##ray": 9447, "##ots": 12868, "documents": 5491, "untitled": 24819, "##\u09aa": 29903, "##ane": 7231, "plunged": 16687, "yerevan": 23383, "catholicism": 16138, "##bid": 17062, "vibrating": 24987, "##xx": 20348, "patrons": 13497, "tremendous": 14388, "##real": 22852, "belgian": 6995, "interred": 13917, "cola": 15270, "quarries": 27069, "attend": 5463, "boycott": 17757, "finished": 2736, "health": 2740, "##ision": 19969, "hostility": 18258, "##ilde": 23891, "councillors": 13189, "cooke": 16546, "##ange": 22043, "##vsky": 15904, "shouldered": 29383, "cumulative": 23260, "work": 2147, "sworn": 10741, "weeds": 20777, "##vet": 19510, "bishopric": 20664, "clauses": 24059, "##hetic": 20086, "segunda": 19071, "mushrooms": 23827, "1690": 24765, "hutchinson": 17165, "plural": 13994, "reminding": 15906, "cabinets": 20053, "burton": 9658, "1908": 5316, "drivers": 6853, "1818": 12094, "##fu": 11263, "leaf": 7053, "[unused30]": 31, "uganda": 10031, "##th": 2705, "papyrus": 29575, "cooler": 14976, "content": 4180, "\u793e": 1924, "##eu": 13765, "ribbons": 22688, "opted": 12132, "irvine": 16272, "bleak": 21657, "meteor": 23879, "pause": 8724, "bibliography": 24751, "\u6211": 1855, "shipment": 22613, "milling": 22491, "real": 2613, "##set": 13462, "##hak": 20459, "felicity": 27357, "##ogy": 15707, "synthesis": 10752, "terrorist": 9452, "[SEP]": 102, "scottish": 4104, "nottinghamshire": 20126, "##ctor": 16761, "onslaught": 28644, "cork": 8513, "migration": 9230, "outline": 12685, "javelin": 23426, "mixtape": 18713, "stations": 3703, "vickers": 18571, "shocked": 7135, "beating": 6012, "turbines": 17396, "nearing": 23454, "[unused907]": 912, "variously": 17611, "computation": 22334, "##iot": 25185, "elders": 13376, "##pes": 10374, "##rien": 23144, "[unused489]": 494, "cheng": 15898, "peers": 12746, "##rd": 4103, "framework": 7705, "boulevard": 8459, "goddamn": 16477, "brussels": 9371, "goran": 28356, "portable": 12109, "babylonian": 26990, "##ti": 3775, "toured": 7255, "originates": 16896, "divisions": 5908, "donetsk": 29151, "rebirth": 22785, "astronaut": 19748, "suspended": 6731, "amazon": 9733, "finishes": 12321, "##ew": 7974, "yale": 7996, "[unused874]": 879, "##\u30b7": 30232, "lebanese": 12592, "##\u22c5": 30141, "hinges": 25484, "bearded": 23905, "1868": 7582, "##udge": 15979, "##torm": 20654, "##rize": 25709, "idols": 24438, "##rl": 12190, "[unused199]": 204, "mole": 16709, "acute": 11325, "lever": 15929, "1985": 3106, "x": 1060, "mic": 23025, "nutrients": 20435, "\u02b3": 1142, "##\u0574": 29776, "polls": 14592, "students": 2493, "##pro": 21572, "exploration": 8993, "buckle": 22853, "meade": 26501, "\u6587": 1861, "reaper": 19559, "satisfied": 8510, "accessory": 25339, "reared": 23295, "##hari": 18428, "employer": 11194, "granddaughter": 12787, "culinary": 20560, "figurative": 29407, "sequencing": 24558, "##chen": 8661, "creation": 4325, "yelling": 13175, "\u5c07": 1828, "##\u4e94": 30279, "##28": 22407, "emergencies": 26360, "joaquin": 16877, "sensors": 13907, "leiden": 20329, "spider": 6804, "successor": 6332, "georgina": 27358, "noticing": 15103, "##pus": 12207, "403": 28203, "outsider": 21002, "##ii": 6137, "daniel": 3817, "chopra": 28826, "[unused898]": 903, "dorset": 15367, "##nca": 20909, "surveys": 12265, "exposed": 6086, "dive": 11529, "clarke": 8359, "[unused63]": 64, "inaccurate": 24949, "interaction": 8290, "##ards": 18117, "##urai": 24804, "##\u0937": 29873, "trophy": 5384, "blaze": 15347, "manufactured": 7609, "everything": 2673, "##upt": 29441, "bobbed": 29579, "\u20a4": 1572, "lilly": 14765, "thanking": 28638, "khmer": 19472, "psychotic": 27756, "crazed": 28343, "booming": 24716, "##thesis": 25078, "##\u0989": 29886, "prequel": 28280, "##uli": 15859, "bai": 21790, "##belt": 21561, "una": 14477, "##yson": 25385, "posse": 25751, "textiles": 18762, "\u0f60": 1433, "[unused415]": 420, "##lei": 23057, "vernacular": 18485, "possessions": 13689, "ballroom": 14307, "charlton": 17821, "tubular": 25147, "staggered": 14648, "8": 1022, "nurse": 6821, "forms": 3596, "boy": 2879, "objected": 15959, "##erik": 27350, "telugu": 12180, "plume": 26888, "reduced": 4359, "##\u624c": 30385, "disk": 9785, "harcourt": 22714, "integrity": 11109, "vila": 23840, "##\u5927": 30336, "blizzard": 21689, "witness": 7409, "##nery": 27415, "var": 13075, "bind": 14187, "livelihood": 24585, "articulated": 20742, "paddle": 20890, "abuse": 6905, "[unused92]": 93, "[unused369]": 374, "orphan": 18211, "repealed": 21492, "##ula": 7068, "alone": 2894, "brooding": 28902, "[unused707]": 712, "taxa": 23726, "triggered": 13330, "erosion": 14173, "sylvester": 20016, "pakistani": 9889, "closer": 3553, "knesset": 27899, "made": 2081, "1984": 3118, "##xon": 22500, "ivy": 7768, "confessed": 14312, "workout": 27090, "1982": 3196, "malacca": 28481, "festival": 2782, "##pc": 15042, "##\u09be": 29914, "##enary": 24553, "genoa": 15771, "mate": 6775, "##mission": 25481, "adrenaline": 14963, "invaders": 17347, "convenient": 14057, "[unused56]": 57, "vocalists": 27478, "hill": 2940, "ozone": 26443, "commerce": 6236, "drainage": 11987, "##aday": 28039, "\u0627": 1270, "drill": 12913, "ever": 2412, "partner": 4256, "closely": 4876, "ashton": 13772, "##dorf": 11592, "av": 20704, "##venting": 26703, "midlands": 13256, "wta": 21925, "sorcerer": 23324, "visited": 4716, "toxicity": 22423, "portal": 9445, "##elia": 13902, "elena": 9060, "showers": 23442, "pluto": 26930, "mad": 5506, "novel": 3117, "lyle": 21971, "airport": 3199, "lbs": 20702, "parcel": 20463, "##shah": 25611, "merritt": 26701, "involved": 2920, "protestants": 19592, "##\u304b": 30177, "##gis": 17701, "debating": 20767, "whorls": 25637, "##gill": 19791, "transfer": 4651, "monster": 6071, "encountered": 8567, "emission": 15760, "\u56d7": 1797, "inspected": 20456, "##rise": 29346, "##own": 12384, "##xt": 18413, "dramas": 16547, "disdain": 25134, "gabrielle": 16988, "juliette": 24696, "assaulted": 17536, "subsidiary": 7506, "nuclear": 4517, "quilt": 27565, "director": 2472, "cinemas": 19039, "technologies": 6786, "freaking": 13847, "productive": 13318, "\u307b": 1676, "seam": 25180, "##fle": 21031, "traditional": 3151, "##nen": 10224, "jeep": 14007, "attendance": 5270, "clinton": 7207, "fated": 27442, "necks": 26082, "tools": 5906, "carter": 5708, "poked": 16826, "unrelated": 15142, "mentioning": 18625, "repetitive": 23563, "quicker": 19059, "##lists": 27103, "##\u092c": 29865, "transit": 6671, "digger": 28661, "clamped": 18597, "##forms": 22694, "rides": 12271, "judicial": 8268, "ministerial": 18645, "##pment": 24073, "stink": 27136, "##\u0982": 29882, "commitment": 8426, "yep": 15624, "##oulos": 28262, "##zo": 6844, "##dry": 21190, "freiburg": 22871, "\u0d9a": 1403, "400": 4278, "rumors": 11256, "prix": 5431, "conflict": 4736, "likely": 3497, "unconventional": 23693, "unlikely": 9832, "##ates": 8520, "legacy": 8027, "moshe": 27123, "for": 2005, "sweeney": 21178, "records": 2636, "australian": 2827, "hartford": 13381, "[unused658]": 663, "##\u1169": 30011, "##\u2095": 30093, "antibodies": 22931, "railing": 15747, "##eland": 25689, "rhys": 13919, "tossing": 15021, "tilt": 17010, "\u53f8": 1791, "##boro": 12691, "dayton": 14700, "pod": 17491, "nuclei": 23767, "##eb": 15878, "stanley": 6156, "illnesses": 24757, "##hall": 9892, "fraction": 12884, "swans": 26699, "constance": 15713, "##\u6b63": 30414, "sale": 5096, "etat": 17997, "caves": 10614, "##\u03bb": 29727, "##lined": 18194, "##tov": 26525, "brig": 16908, "pembroke": 21457, "##ctive": 15277, "##buch": 25987, "picnic": 12695, "greenland": 16128, "diaries": 18707, "gdp": 14230, "heal": 11005, "##tiv": 29068, "integrating": 22380, "interfered": 28976, "newt": 25597, "[unused595]": 600, "buzzed": 21377, "lawyers": 9559, "##dam": 17130, "mandela": 26887, "blaming": 24114, "[unused931]": 936, "cannon": 8854, "obsession": 17418, "pandit": 29331, "correctly": 11178, "[unused792]": 797, "##vani": 27760, "pleading": 16418, "asserts": 19514, "##vez": 26132, "raiders": 10642, "##ert": 8743, "[unused827]": 832, "##ox": 11636, "secondly": 16378, "assert": 20865, "georgetown": 12982, "antoine": 12445, "##die": 10265, "written": 2517, "##ath": 8988, "ops": 23092, "##\u1161": 30006, "borneo": 15688, "mor": 22822, "\u05dc": 1253, "##ha": 3270, "acknowledging": 21894, "packets": 23730, "fixing": 15887, "1960": 3624, "algorithms": 13792, "reflective": 21346, "picks": 11214, "juarez": 25398, "\u0430": 1180, "##bag": 16078, "empty": 4064, "van": 3158, "database": 7809, "headmaster": 16296, "guerre": 24613, "hush": 20261, "21": 2538, "residences": 14094, "remove": 6366, "offenses": 25173, "##off": 7245, "standards": 4781, "madeline": 16974, "financially": 13732, "youtube": 7858, "priory": 14284, "307": 24559, "centre": 2803, "coarse": 20392, "##llon": 22179, "aa": 9779, "friedman": 18486, "tyson": 19356, "anthropology": 12795, "##stand": 21515, "damages": 12394, "club": 2252, "dart": 14957, "reinforced": 11013, "unfair": 15571, "keynes": 22152, "holding": 3173, "customer": 8013, "##\u304a": 30176, "404": 24837, "##hide": 26100, "outlet": 13307, "\u05d7": 1248, "kitten": 18401, "volunteer": 6951, "##pas": 19707, "interval": 13483, "1977": 3355, "ric": 26220, "\u10dc": 1449, "criticism": 6256, "##eber": 22669, "what": 2054, "depot": 8470, "govt": 22410, "helicopter": 7739, "insects": 9728, "\u535a": 1786, "bulging": 27569, "escaped": 6376, "condor": 29260, "##fe": 7959, "porcelain": 17767, "[unused990]": 995, "transforms": 21743, "authorised": 19256, "##nally": 26827, "hosted": 4354, "1781": 16788, "bang": 9748, "malaria": 19132, "##\u4e4b": 30275, "mx": 25630, "ammunition": 9290, "##\u5b97": 30347, "ian": 4775, "##hers": 22328, "fortifications": 14507, "1897": 6347, "decorated": 7429, "jena": 27510, "##ncia": 22750, "nicaragua": 15448, "ensured": 16316, "thierry": 26413, "services": 2578, "twisting": 12814, "muslim": 5152, "horizontal": 9876, "henley": 20768, "racist": 16939, "timeline": 17060, "##zow": 22670, "intersecting": 27294, "bn": 24869, "peculiar": 14099, "steer": 20634, "important": 2590, "coordinates": 12093, "bern": 16595, "loan": 5414, "orphaned": 27093, "eras": 28500, "supposedly": 10743, "lair": 21039, "##rand": 13033, "##taken": 25310, "comparisons": 18539, "altered": 8776, "##eded": 19082, "\u0582": 1238, "odd": 5976, "felt": 2371, "247": 23380, "hayden": 13872, "internet": 4274, "[unused316]": 321, "mata": 22640, "pop": 3769, "orthodox": 6244, "siena": 23754, "facilitate": 10956, "cathedral": 5040, "bass": 3321, "heading": 5825, "sadness": 12039, "niece": 12286, "sane": 22856, "senses": 9456, "kicking": 10209, "mounts": 19363, "academics": 15032, "##rup": 21531, "##ciency": 29125, "harmon": 25546, "confidence": 7023, "##86": 20842, "hull": 6738, "siegfried": 25948, "unification": 16905, "substrate": 16305, "causal": 28102, "\u1d62": 1507, "threat": 5081, "rebuilt": 7183, "inhaled": 15938, "##ping": 4691, "##drick": 24092, "[unused518]": 523, "able": 2583, "##iously": 19426, "obsessed": 15896, "salmon": 11840, "gag": 18201, "##cala": 25015, "theft": 11933, "flooded": 10361, "2015": 2325, "propose": 16599, "sensory": 16792, "preferred": 6871, "[unused676]": 681, "##uca": 18100, "##ani": 7088, "mighty": 10478, "geography": 10505, "volume": 3872, "##haling": 23896, "vo": 29536, "dismissal": 15322, "##\u2071": 30072, "eta": 27859, "##\u0636": 29827, "213": 19883, "1731": 28446, "breathless": 16701, "[unused167]": 172, "fascinating": 17160, "##onus": 24891, "spectacle": 21177, "[unused45]": 46, "\u5bb6": 1825, "##ei": 7416, "nudged": 18666, "assumed": 5071, "encoded": 12359, "nonstop": 25493, "##inal": 13290, "\u03c3": 1173, "loneliness": 20334, "lac": 18749, "norma": 20692, "dillon": 14602, "[unused662]": 667, "nets": 16996, "huntington": 16364, "##\u2015": 30053, "sands": 13457, "trolls": 27980, "##\u03c9": 29739, "paolo": 14174, "usable": 24013, "predict": 16014, "01": 5890, "thug": 26599, "undergoes": 29129, "territory": 3700, "##anto": 21634, "delayed": 8394, "porte": 25927, "covering": 5266, "stick": 6293, "had": 2018, "[unused812]": 817, "##nya": 17238, "##\u2208": 30124, "##\u02e4": 29719, "slicing": 26514, "observations": 9420, "faithful": 11633, "jacobite": 28725, "sumatra": 18262, "worms": 16253, "sacrifice": 8688, "eh": 15501, "boca": 22765, "##mounted": 27632, "capitalist": 19640, "nowhere": 7880, "pushed": 3724, "sprinter": 19938, "injected": 19737, "##\u793a": 30449, "sentences": 11746, "bolshevik": 24477, "escalated": 26814, "gertrude": 18734, "##nsen": 29428, "executives": 12706, "[unused118]": 123, "[unused788]": 793, "clients": 7846, "flinched": 19201, "groin": 20092, "##lage": 20679, "2000": 2456, "pursuing": 11828, "avant": 14815, "1817": 12529, "##ardo": 24649, "clover": 25133, "benji": 27231, "peruvian": 15432, "mountains": 4020, "##ogenic": 24278, "[unused172]": 177, "##iah": 12215, "##vo": 6767, "##\u0631": 17149, "##world": 11108, "taunting": 29442, "usaf": 18531, "voodoo": 21768, "signing": 6608, "photographer": 8088, "knowing": 4209, "recreational": 10517, "archery": 21383, "##ism": 2964, "chamber": 4574, "##7th": 27506, "know": 2113, "[unused477]": 482, "estadio": 14143, "##holders": 17794, "acton": 28794, "##itical": 26116, "predecessors": 16372, "scotia": 9676, "demise": 13614, "retreat": 7822, "modest": 10754, "##nging": 22373, "calculating": 20177, "aimee": 23551, "sculptors": 28417, "justify": 16114, "williamson": 14333, "drinking": 5948, "cure": 9526, "lydia": 14076, "crust": 19116, "##imo": 16339, "softball": 12585, "o": 1051, "##lli": 6894, "vicious": 13925, "accepted": 3970, "\u30c1": 1710, "flinch": 23224, "flagship": 10565, "tower": 3578, "preview": 19236, "vested": 26003, "##\u2089": 30085, "caledonian": 27449, "##worthy": 13966, "[unused190]": 195, "quadrant": 29371, "withdrawn": 9633, "inhabit": 21490, "##yce": 29297, "matteo": 24713, "prime": 3539, "antagonist": 17379, "contained": 4838, "##khan": 26370, "caldwell": 16589, "intervention": 8830, "morphology": 19476, "poem": 5961, "\u05de": 1255, "##lad": 27266, "nora": 12306, "adapted": 5967, "disc": 5860, "braden": 27232, "wolff": 23498, "tugging": 17100, "tuberculosis": 15877, "mimic": 23150, "speechless": 25146, "##\u0449": 29754, "frequent": 6976, "molded": 27992, "\u1d48": 1498, "irresistible": 27149, "##sso": 24137, "aggression": 14974, "dude": 12043, "##rence": 24413, "[unused186]": 191, "##llen": 12179, "moat": 25266, "##ty": 3723, "waited": 4741, "campbell": 6063, "hangul": 19051, "apollo": 9348, "northward": 17192, "stalking": 20070, "gui": 26458, "invariant": 23915, "\u1d52": 1503, "##\u4eac": 30281, "democrat": 7672, "determines": 16463, "panted": 28149, "##bbly": 24200, "##opped": 27288, "advocacy": 12288, "emergency": 5057, "##go": 3995, "benin": 21164, "integrated": 6377, "curry": 15478, "academie": 19669, "tanaka": 21829, "##ded": 5732, "##ection": 18491, "influencing": 25870, "genetic": 7403, "uc": 15384, "listened": 7791, "micah": 17665, "hc": 16731, "##\u057d": 29781, "economies": 18730, "wanda": 20848, "bp": 17531, "suburban": 9282, "urge": 9075, "marek": 29318, "kevin": 4901, "##lington": 18722, "originated": 7940, "snuggled": 26867, "muir": 23110, "\u2264": 1608, "chip": 9090, "isis": 18301, "translations": 11913, "\u0f42": 1426, "scenes": 5019, "##ctum": 27272, "confirmed": 4484, "suggestions": 15690, "[unused295]": 300, "##fying": 14116, "name": 2171, "[unused110]": 115, "buddha": 11903, "inspecting": 29508, "jury": 6467, "preserve": 7969, "\u662d": 1868, "order": 2344, "regimental": 17604, "vinci": 23765, "wondering": 6603, "pic": 27263, "vh1": 26365, "\u0f58": 1432, "##rton": 11715, "factors": 5876, "##hre": 28362, "cleopatra": 22003, "##\u0917": 29853, "clair": 17936, "##ament": 24996, "viceroy": 19007, "\u00a35": 27813, "hopeless": 20625, "##codes": 23237, "featured": 2956, "[unused801]": 806, "##hus": 9825, "yemen": 13968, "##gence": 17905, "server": 8241, "potato": 14557, "camped": 27077, "1776": 13963, "world": 2088, "##marks": 27373, "[unused11]": 12, "buddies": 24115, "vermont": 8839, "cook": 5660, "gibbons": 22194, "stormy": 24166, "beds": 9705, "docked": 25727, "voted": 5444, "stevenson": 13636, "likelihood": 16593, "[unused243]": 248, "pp": 4903, "craters": 27561, "cool": 4658, "ejected": 22607, "##\u03bd": 16177, "dealers": 16743, "provinces": 6941, "preparing": 8225, "##dr": 13626, "cultivated": 13237, "soc": 27084, "trades": 14279, "heating": 10808, "##nik": 8238, "navy": 3212, "telecommunication": 25958, "\u062c": 1275, "arching": 27335, "[unused974]": 979, "[unused755]": 760, "announce": 14970, "##\u5948": 30340, "##ald": 19058, "lower": 2896, "foreign": 3097, "huffed": 25014, "mu": 14163, "[unused790]": 795, "distinguishes": 27343, "storing": 23977, "hoffman": 15107, "max": 4098, "genus": 3562, "296": 27200, "saxon": 10038, "##ras": 8180, "ju": 18414, "honorary": 5756, "sucked": 8631, "ink": 10710, "hardened": 15015, "##ifice": 23664, "[unused877]": 882, "##therapy": 20900, "##rase": 23797, "na": 6583, "tonga": 20188, "chargers": 18649, "booking": 21725, "##\u0e07": 29946, "##tara": 27115, "stove": 16247, "notice": 5060, "brick": 5318, "azerbaijan": 8365, "even": 2130, "stockport": 26284, "##oteric": 29112, "greco": 18180, "voyage": 8774, "##dan": 7847, "medicines": 20233, "dipped": 13537, "trois": 25527, "##uta": 13210, "cracks": 15288, "georgia": 4108, "uncertain": 9662, "twinned": 25901, "##eis": 17580, "hair": 2606, "yield": 10750, "embraced": 14218, "kernel": 16293, "pirates": 8350, "saturday": 5095, "amounted": 18779, "ps": 8827, "res": 24501, "comedic": 21699, "\u3009": 1638, "mansions": 26842, "##ajan": 28869, "listing": 10328, "pennant": 22690, "peeking": 28222, "locomotive": 8098, "brigades": 14589, "##31": 21486, "frequented": 24832, "1895": 6301, "[unused473]": 478, "leto": 24543, "descending": 15127, "ensemble": 7241, "widespread": 6923, "dumped": 14019, "stemmed": 27674, "thematic": 23539, "##\u09b2": 29909, "1707": 25029, "##cken": 19766, "##rut": 22134, "##dition": 20562, "03": 6021, "legislative": 4884, "directory": 14176, "diamond": 6323, "flora": 10088, "indefinitely": 20733, "allergic": 27395, "ruined": 9868, "tempting": 23421, "klan": 26613, "##arian": 12199, "1728": 26833, "exchanges": 15800, "bet": 6655, "momentarily": 16032, "corrected": 13371, "translate": 17637, "aged": 4793, "voltage": 10004, "depicted": 8212, "week": 2733, "aggregation": 28041, "films": 3152, "reject": 15454, "##cona": 24366, "catering": 18640, "ronan": 18633, "##grass": 19673, "millionaire": 19965, "##flower": 14156, "spilling": 18054, "neighbor": 11429, "ratios": 21879, "still": 2145, "630": 23609, "elegance": 27745, "heel": 12073, "##river": 24352, "##tral": 21493, "catfish": 23723, "jaya": 24120, "soaked": 13077, "palaces": 22763, "invented": 8826, "draws": 9891, "##\u65e5": 30390, "boar": 24187, "explain": 4863, "elects": 27161, "##ographic": 13705, "##pop": 16340, "pants": 6471, "prayer": 7083, "penetrated": 21653, "pairing": 22778, "murdered": 7129, "swirling": 16499, "quantum": 8559, "\u2297": 1613, "newscast": 20306, "politics": 4331, "abducted": 20361, "##\u30e3": 30254, "##ores": 16610, "parking": 5581, "rival": 6538, "escorts": 24877, "handball": 12378, "yan": 13619, "05": 5709, "hp": 6522, "tidy": 29369, "barrels": 13826, "##boot": 27927, "sentiment": 15792, "piracy": 24386, "metro": 6005, "##ate": 3686, "##rino": 17815, "topology": 19587, "return": 2709, "stares": 14020, "1700": 16601, "[unused127]": 132, "paradigm": 20680, "[unused18]": 19, "clause": 11075, "##stock": 14758, "##hae": 25293, "m3": 29061, "27th": 15045, "flaming": 19091, "apologetic": 29352, "cbn": 21824, "##45": 19961, "##hom": 23393, "electrified": 18042, "\u82f1": 1941, "[unused325]": 330, "abundance": 14531, "pilgrim": 21214, "ny": 6396, "commenting": 15591, "\u1103": 1457, "##wal": 13476, "contested": 7259, "tx": 19067, "compact": 9233, "1754": 22593, "840": 28122, "imply": 19515, "favorable": 11119, "fragmentation": 28424, "##oked": 23461, "jets": 9924, "\u0bc1": 1397, "##tl": 19646, "bolt": 10053, "kara": 13173, "06": 5757, "principals": 27928, "##iba": 18410, "paw": 22195, "alternating": 15122, "pastoral": 13645, "##ej": 20518, "jen": 15419, "##dion": 29573, "sf": 16420, "fingerprints": 27556, "devils": 13664, "bridges": 7346, "protective": 9474, "affordable": 15184, "branches": 5628, "lifting": 8783, "papers": 4981, "##\u10dd": 29986, "##abe": 16336, "knowledge": 3716, "##odes": 19847, "##lie": 8751, "vicki": 25424, "americans": 4841, "davey": 20436, "downing": 22501, "\u963f": 1971, "beautiful": 3376, "wendell": 24526, "rebel": 8443, "\u1d4f": 1501, "forests": 6138, "teaching": 4252, "an": 2019, "##\u03c6": 29736, "##pins": 27915, "neighbourhoods": 27535, "##wyl": 27740, "liberation": 7931, "variability": 28436, "execute": 15389, "shiva": 12535, "configuration": 9563, "1826": 11931, "alto": 10766, "##holding": 23410, "constructed": 3833, "words": 2616, "george": 2577, "1858": 8517, "##lateral": 28277, "audience": 4378, "favor": 5684, "##kovich": 28195, "overwhelmed": 13394, "##\u093f": 29877, "pushes": 13956, "sawyer": 13975, "transatlantic": 26617, "[unused276]": 281, "brigade": 4250, "sudden": 5573, "insurrection": 27860, "originals": 23728, "simpson": 9304, "##biology": 21685, "decoration": 11446, "##san": 8791, "collegiate": 9234, "fuselage": 13478, "31st": 17089, "1993": 2857, "indo": 11424, "jesuits": 20297, "beg": 11693, "confronts": 17628, "opponents": 7892, "\u6bd4": 1890, "##mming": 25057, "rein": 27788, "dynasty": 5321, "##oth": 14573, "india": 2634, "impetus": 27961, "commander": 3474, "canons": 21975, "\u09ac": 1368, "consequences": 8465, "description": 6412, "featherweight": 27145, "peer": 8152, "montrose": 24990, "590": 25186, "shouts": 15701, "copyright": 9385, "went": 2253, "lagos": 16738, "prompting": 15870, "landmark": 8637, "linked": 5799, "loaded": 8209, "payton": 28666, "\u02be": 1147, "[unused312]": 317, "volta": 26089, "banging": 22255, "\u02e4": 1154, "falcon": 11684, "slovakia": 10991, "cushions": 27205, "##sian": 17043, "##market": 20285, "trojan": 23445, "##\u0637": 29828, "##rrier": 27051, "veil": 15562, "##skie": 23955, "gray": 3897, "erratic": 24122, "gradient": 17978, "##\u02b7": 29709, "spring": 3500, "bureaucracy": 25934, "quantities": 12450, "##\u1d52": 30039, "theatre": 3004, "liaison": 14975, "cartridges": 22998, "daggers": 24210, "ibm": 9980, "completes": 28123, "motor": 5013, "\u00b0c": 6362, "api": 17928, "channel": 3149, "succeed": 9510, "invitations": 29492, "yi": 12316, "bartholomew": 19866, "##grade": 24170, "quivering": 26012, "##erted": 28728, "wilcox": 23926, "utilizing": 16911, "coup": 8648, "[unused939]": 944, "divine": 7746, "ra": 10958, "[unused928]": 933, "craftsman": 26286, "nausea": 19029, "##lena": 20844, "enough": 2438, "dupont": 22848, "adoption": 9886, "##ak": 4817, "humor": 8562, "##nd": 4859, "symbols": 9255, "[unused355]": 360, "[unused391]": 396, "intervene": 18793, "masters": 5972, "squeezing": 15328, "tornado": 11352, "##lassified": 24938, "acquired": 3734, "tribute": 7050, "salsa": 26509, "vocals": 2955, "boulder": 13264, "irving": 12415, "##\u00f7": 29669, "male": 3287, "##\u03bc": 29728, "bangladesh": 7269, "##ch": 2818, "cradle": 18293, "##ppa": 13944, "##ever": 22507, "doe": 18629, "awful": 9643, "##\u8eca": 30480, "certainly": 5121, "##duk": 28351, "bremen": 16314, "273": 25371, "clocks": 20940, "polka": 29499, "remembers": 17749, "cottage": 9151, "bracing": 25919, "##rini": 22612, "generates": 19421, "pledged": 16970, "geologist": 21334, "plato": 18858, "fremantle": 20358, "1959": 3851, "##ala": 7911, "ferdinand": 9684, "comparing": 13599, "trenches": 19874, "nos": 16839, "##\uff0d": 30516, "##lib": 29521, "mandatory": 10915, "broadly": 13644, "strange": 4326, "helmet": 10412, "##bold": 27495, "employee": 7904, "wider": 7289, "\u05d3": 1244, "##oux": 28700, "federally": 20892, "##ropriation": 26121, "suspected": 6878, "investigates": 28062, "german": 2446, "straightforward": 19647, "karl": 6382, "gem": 17070, "##iard": 14619, "feature": 3444, "abstraction": 24504, "whispering": 13550, "possible": 2825, "periodical": 21802, "leach": 24520, "segregation": 18771, "copy": 6100, "##38": 22025, "ninety": 13568, "nfc": 22309, "##\u308b": 30213, "ode": 24040, "fever": 9016, "laurence": 10883, "slower": 12430, "think": 2228, "play": 2377, "luminous": 25567, "\u79be": 1927, "bouncing": 16361, "wilkins": 22745, "younger": 3920, "walkover": 17495, "cycle": 5402, "surreal": 16524, "penal": 18476, "analogous": 19639, "##minster": 24431, "254": 22234, "grafton": 28680, "train": 3345, "overlooking": 12549, "adapt": 15581, "##nary": 24041, "amelie": 25285, "mirza": 18366, "bun": 21122, "\u20b9": 1576, "colour": 6120, "agreement": 3820, "peter": 2848, "rigged": 25216, "meridian": 17984, "shy": 11004, "##ctuated": 25638, "\u067e": 1302, "##ized": 3550, "1957": 3890, "qualifier": 10981, "walden": 24834, "raceway": 23018, "harlow": 22545, "candles": 14006, "pilgrims": 17992, "attributes": 12332, "nevertheless": 6600, "godfather": 23834, "returned": 2513, "publications": 5523, "\u5149": 1770, "gearbox": 22227, "turf": 14585, "gable": 13733, "abdul": 10298, "gardner": 11764, "##ingen": 15542, "##lch": 29358, "##bon": 11735, "parma": 19177, "##usly": 27191, "##\u300f": 30170, "disadvantaged": 27322, "##az": 10936, "stories": 3441, "honda": 11990, "assassins": 18364, "##kumar": 18494, "clapped": 18310, "orchards": 22976, "la": 2474, "\u028c": 1134, "jaw": 5730, "prone": 13047, "##vao": 24682, "[unused558]": 563, "valued": 11126, "plainly": 24250, "registering": 25719, "regarding": 4953, "styling": 20724, "\u09b7": 1375, "thud": 20605, "huge": 4121, "##[": 29634, "bartlett": 20081, "learners": 26262, "mono": 18847, "shaman": 23610, "streamlined": 29445, "recovered": 6757, "canopy": 14582, "##nut": 24072, "reminded": 6966, "##pine": 19265, "ltd": 5183, "topics": 7832, "##dock": 14647, "18": 2324, "##nate": 12556, "wakefield": 16045, "industries": 6088, "singles": 3895, "egyptian": 6811, "compass": 16681, "respects": 17475, "grant": 3946, "310": 17196, "caused": 3303, "insider": 25297, "facilitating": 25505, "gaulle": 28724, "[unused206]": 211, "spherical": 18970, "##play": 13068, "biomedical": 20906, "fairfield": 18986, "##sham": 21010, "jaws": 16113, "cutler": 24975, "simple": 3722, "stereo": 12991, "forth": 5743, "##nist": 26942, "sums": 20571, "lp": 6948, "ridley": 20608, "skeleton": 13526, "smiley": 27420, "few": 2261, "undefeated": 15188, "rushes": 18545, "\u0153": 1107, "leased": 12019, "colder": 21399, "elvis": 12280, "elliptical": 27213, "bone": 5923, "##lem": 16930, "\u5742": 1803, "##uge": 22890, "hunts": 28526, "vega": 15942, "turbulent": 22609, "localized": 22574, "renovated": 10601, "nodes": 14164, "exports": 14338, "rosen": 21701, "earle": 23888, "disasters": 18665, "basically": 10468, "hooded": 21592, "1875": 7466, "quest": 8795, "##mour": 20360, "ambitious": 12479, "downhill": 19448, "bred": 13680, "relaxed": 8363, "courtyard": 10119, "##phi": 21850, "bumps": 18548, "pandora": 19066, "captures": 19566, "##dez": 24601, "##cre": 16748, "shrill": 28349, "shu": 18454, "unsuccessful": 7736, "performers": 9567, "johan": 13093, "nottingham": 11331, "profoundly": 28089, "scholarship": 6566, "afternoon": 5027, "addresses": 11596, "##cot": 24310, "portland": 6734, "stars": 3340, "snatched": 14177, "##rner": 18703, "##ules": 16308, "artwork": 8266, "[unused84]": 85, "1610": 25800, "kim": 5035, "ur": 24471, "[unused786]": 791, "pivotal": 20369, "sarcastic": 22473, "ou": 15068, "tactics": 9887, "interpretation": 7613, "##\u5317": 30307, "span": 8487, "##mbre": 19908, "[unused356]": 361, "wr": 23277, "diesel": 7937,
[...]
